{"encoder": {"=": 0, "</w>": 1, "V": 2, "a": 3, "l": 4, "k": 5, "y": 6, "r": 7, "i": 8, "C": 9, "h": 10, "o": 11, "n": 12, "c": 13, "e": 14, "s": 15, "I": 16, "S": 17, "j": 18, "\u014d": 19, "3": 20, ":": 21, "(": 22, "J": 23, "p": 24, "\u6226": 25, "\u5834": 26, "\u306e": 27, "\u30f4": 28, "\u30a1": 29, "\u30eb": 30, "\u30ad": 31, "\u30e5": 32, "\u30ea": 33, "\u30a2": 34, ",": 35, "t": 36, ".": 37, "f": 38, "B": 39, "d": 40, ")": 41, "m": 42, "u": 43, "@": 44, "-": 45, "g": 46, "v": 47, "b": 48, "M": 49, "P": 50, "R": 51, "2": 52, "0": 53, "1": 54, "E": 55, "w": 56, "\"": 57, "N": 58, "G": 59, "W": 60, "T": 61, "H": 62, "O": 63, "z": 64, "A": 65, "'": 66, "x": 67, "D": 68, "4": 69, "q": 70, "U": 71, "K": 72, "F": 73, "7": 74, ";": 75, "L": 76, "Y": 77, "5": 78, "X": 79, "9": 80, "8": 81, "\u00c6": 82, "$": 83, "6": 84, "[": 85, "]": 86, "/": 87, "&": 88, "\u00b2": 89, "\u2013": 90, "\u2019": 91, "Q": 92, "\u00a3": 93, "\u2014": 94, "~": 95, "%": 96, "+": 97, "\u00b0": 98, "!": 99, "\u20b9": 100, "#": 101, "\u201c": 102, "\u201d": 103, "\u00e1": 104, "\u0160": 105, "\u1e6f": 106, "\u2018": 107, "Z": 108, "\u00ed": 109, "\u00e4": 110, "\u00b5": 111, "\u03b2": 112, "\u00f3": 113, "\u00e9": 114, "\u00f1": 115, "?": 116, "\u0161": 117, "\u00f6": 118, "\u010d": 119, "\u0107": 120, "\u0111": 121, "\u0141": 122, "\u017a": 123, "\u00fc": 124, "\u0142": 125, "\u0144": 126, "\u017b": 127, "\u017c": 128, "\u00d6": 129, "\u03b4": 130, "\u2026": 131, "\u0e31": 132, "\u0e48": 133, "\u0e07": 134, "\u0e01": 135, "\u0e25": 136, "\u0e22": 137, "\u0e32": 138, "\u0e13": 139, "\u0e21": 140, "\u0e34": 141, "\u0e15": 142, "\u0e23": 143, "\u00e8": 144, "\u0e35": 145, "\u0e49": 146, "\u0e27": 147, "\u0e2d": 148, "\u0e4c": 149, "^": 150, "*": 151, "\u2212": 152, "\u2192": 153, "<": 154, "\u00e3": 155, "\u03bc": 156, "\u03b1": 157, "\u2044": 158, "\u00d7": 159, ">": 160, "\u00dc": 161, "\u00e7": 162, "\u00c9": 163, "\u1ea1": 164, "\u00e5": 165, "\u5468": 166, "\u540c": 167, "\u4f97": 168, "\u00f8": 169, "\u0103": 170, "\u015f": 171, "\u00e2": 172, "\u266f": 173, "\u03bd": 174, "\u062d": 175, "\u0635": 176, "\u0646": 177, "\u1e24": 178, "\u1e63": 179, "\u0101": 180, "\u0627": 181, "\u0644": 182, "\u0623": 183, "\u0643": 184, "\u0631": 185, "\u062f": 186, "\u00ea": 187, "\u00bd": 188, "e</w>": 189, "s</w>": 190, "th": 191, "d</w>": 192, "n</w>": 193, "er": 194, "t</w>": 195, "the</w>": 196, ",</w>": 197, "an": 198, "in": 199, "y</w>": 200, "ed</w>": 201, ".</w>": 202, "or": 203, "ar": 204, "al": 205, "f</w>": 206, "o</w>": 207, "ti": 208, "re": 209, "of</w>": 210, "and</w>": 211, "er</w>": 212, "on": 213, "en": 214, "g</w>": 215, "a</w>": 216, "on</w>": 217, "in</w>": 218, "ing</w>": 219, "ou": 220, "to</w>": 221, "as</w>": 222, "st": 223, "es</w>": 224, "hi": 225, "at": 226, "om": 227, "ch": 228, "=</w>": 229, "el": 230, "\"</w>": 231, "he</w>": 232, "ri": 233, "al</w>": 234, "si": 235, "at</w>": 236, "an</w>": 237, "@</w>": 238, "th</w>": 239, "li": 240, "or</w>": 241, "st</w>": 242, "ur": 243, "ac": 244, "am": 245, "ec": 246, "ro": 247, "was</w>": 248, "en</w>": 249, "l</w>": 250, "di": 251, "ly</w>": 252, "wi": 253, "@-": 254, "@-@</w>": 255, "tion</w>": 256, "em": 257, "ir": 258, "The</w>": 259, "'</w>": 260, "it": 261, "ow": 262, "ol": 263, "is</w>": 264, "ic": 265, "as": 266, "k</w>": 267, "ch</w>": 268, "le</w>": 269, "that</w>": 270, "de": 271, "sh": 272, "ag": 273, "for</w>": 274, "0</w>": 275, "il": 276, "with</w>": 277, "gh": 278, "le": 279, "ra": 280, "m</w>": 281, "un": 282, "ve</w>": 283, "op": 284, "by</w>": 285, "ent</w>": 286, "ha": 287, "be": 288, "ent": 289, "(</w>": 290, ")</w>": 291, "ere</w>": 292, "la": 293, "su": 294, "se": 295, "con": 296, "19": 297, "ad": 298, "vi": 299, "om</w>": 300, "sp": 301, "ar</w>": 302, "ce</w>": 303, "ers</w>": 304, "se</w>": 305, "fr": 306, "his</w>": 307, "the": 308, "bu": 309, "oun": 310, "ted</w>": 311, "pro": 312, "for": 313, "lo": 314, "tion": 315, "com": 316, "ver": 317, "from</w>": 318, "ab": 319, "wh": 320, "ts</w>": 321, "ex": 322, "ap": 323, "it</w>": 324, "ation</w>": 325, "ul": 326, "whi": 327, "were</w>": 328, "is": 329, "p</w>": 330, "po": 331, "ter</w>": 332, "20": 333, "es": 334, "w</w>": 335, "2</w>": 336, "ds</w>": 337, "1</w>": 338, "ay</w>": 339, "ther</w>": 340, "c</w>": 341, "no": 342, "mo": 343, "4</w>": 344, "ne": 345, "rec": 346, "3</w>": 347, "5</w>": 348, "ru": 349, "per": 350, "ated</w>": 351, "tw": 352, "oc": 353, "oo": 354, "ate</w>": 355, "du": 356, "ff": 357, "ded</w>": 358, "ea": 359, "are</w>": 360, "ding</w>": 361, "ter": 362, "ev": 363, "im": 364, "which</w>": 365, "had</w>": 366, "qu": 367, "ir</w>": 368, "sc": 369, "our": 370, "pre": 371, "ld</w>": 372, "te</w>": 373, "ma": 374, "lu": 375, "all</w>": 376, "ame</w>": 377, "In</w>": 378, "um": 379, "ough": 380, ";</w>": 381, "6</w>": 382, "sh</w>": 383, "de</w>": 384, "ta": 385, "par": 386, "ran": 387, "ty</w>": 388, "so</w>": 389, "one</w>": 390, "tim": 391, "ber</w>": 392, "ing": 393, "man": 394, "ear": 395, "be</w>": 396, "8</w>": 397, "out</w>": 398, "por": 399, "est": 400, "us": 401, "el</w>": 402, "ally</w>": 403, "Ch": 404, "ong</w>": 405, "inc": 406, "tions</w>": 407, "7</w>": 408, "\u2013</w>": 409, "St": 410, "ity</w>": 411, "A</w>": 412, "fir": 413, "est</w>": 414, "ary</w>": 415, "her</w>": 416, "ni": 417, "wor": 418, "tur": 419, "ep": 420, "gu": 421, "fi": 422, "et</w>": 423, "tic": 424, "pla": 425, "der</w>": 426, "pl": 427, "shi": 428, "der": 429, "its</w>": 430, "au": 431, "200": 432, "ine</w>": 433, "their</w>": 434, "low": 435, "also</w>": 436, "sa": 437, "age</w>": 438, "go": 439, "bo": 440, "9</w>": 441, "has</w>": 442, "ser": 443, "ge</w>": 444, "land</w>": 445, "fter</w>": 446, "he": 447, "me": 448, "av": 449, "ough</w>": 450, "own</w>": 451, "ke</w>": 452, "not</w>": 453, "but</w>": 454, "@.": 455, "@.@</w>": 456, ":</w>": 457, "ver</w>": 458, "ved</w>": 459, "ound</w>": 460, "ting</w>": 461, "ome</w>": 462, "mi": 463, "ment</w>": 464, "ents</w>": 465, "ould</w>": 466, "00</w>": 467, "gi": 468, "bec": 469, "ore</w>": 470, "first</w>": 471, "two</w>": 472, "ght</w>": 473, "att": 474, "led</w>": 475, "ss</w>": 476, "ies</w>": 477, "stor": 478, "cont": 479, "have</w>": 480, "sion</w>": 481, "this</w>": 482, "fe": 483, "ic</w>": 484, "duc": 485, "other</w>": 486, "I</w>": 487, "uring</w>": 488, "i</w>": 489, "ard</w>": 490, "been</w>": 491, "ence</w>": 492, "ned</w>": 493, "pu": 494, "ack</w>": 495, "ely</w>": 496, "who</w>": 497, "201": 498, "@,": 499, "@,@</w>": 500, "ater</w>": 501, "tu": 502, "to": 503, "gr": 504, "te": 505, "tr": 506, "son</w>": 507, "ant</w>": 508, "sig": 509, "ous</w>": 510, "am</w>": 511, "ks</w>": 512, "spec": 513, "mu": 514, "He</w>": 515, "tional</w>": 516, "ft</w>": 517, "end</w>": 518, "pe": 519, "co": 520, "Al": 521, "sed</w>": 522, "ial</w>": 523, "she</w>": 524, "ei": 525, "our</w>": 526, "ow</w>": 527, "x</w>": 528, "after</w>": 529, "sec": 530, "ties</w>": 531, "ree</w>": 532, "18": 533, "ined</w>": 534, "comm": 535, "Bri": 536, "they</w>": 537, "inclu": 538, "em</w>": 539, "pri": 540, "off": 541, "bli": 542, "time</w>": 543, "form": 544, "ali": 545, "lar": 546, "ric": 547, "In": 548, "ell</w>": 549, "able</w>": 550, "ons</w>": 551, "play": 552, "ember</w>": 553, "tive</w>": 554, "str": 555, "ps</w>": 556, "It</w>": 557, "tra": 558, "ini": 559, "ari": 560, "als</w>": 561, "S</w>": 562, "b</w>": 563, "ren": 564, "king</w>": 565, "oli": 566, "ces</w>": 567, "more</w>": 568, "char": 569, "most</w>": 570, "ace</w>": 571, "into</w>": 572, "man</w>": 573, "than</w>": 574, "een</w>": 575, "stru": 576, "id</w>": 577, "ates</w>": 578, "pres": 579, "sti": 580, "ship</w>": 581, "up</w>": 582, "ance</w>": 583, "pr": 584, "ased</w>": 585, "ited</w>": 586, "ure</w>": 587, "ked</w>": 588, "tor": 589, "An": 590, "ern</w>": 591, "car": 592, "ad</w>": 593, "only</w>": 594, "comp": 595, "cent": 596, "ph": 597, "ew</w>": 598, "ess</w>": 599, "ations</w>": 600, "ast</w>": 601, "us</w>": 602, "ue</w>": 603, "og": 604, "Ar": 605, "ob": 606, "ig": 607, "ear</w>": 608, "during</w>": 609, "used</w>": 610, "way</w>": 611, "dec": 612, "ey</w>": 613, "mar": 614, "kn": 615, "et": 616, "sel": 617, "Th": 618, "ach": 619, "cre": 620, "ings</w>": 621, "aga": 622, "fil": 623, "seas": 624, "air": 625, "over</w>": 626, "old</w>": 627, "ins</w>": 628, "albu": 629, "lan": 630, "would</w>": 631, "ten": 632, "les</w>": 633, "ast": 634, "re</w>": 635, "cc": 636, "inter": 637, "tween</w>": 638, "mil": 639, "though</w>": 640, "loc": 641, "ade</w>": 642, "tic</w>": 643, "199": 644, "yp": 645, "id": 646, "recor": 647, "num": 648, "ond</w>": 649, "thr": 650, "of": 651, "struc": 652, "Un": 653, "high": 654, "ase</w>": 655, "ans</w>": 656, "wri": 657, "gre": 658, "ass": 659, "pp": 660, "when</w>": 661, "sy": 662, "publi": 663, "res</w>": 664, "ani": 665, "ning</w>": 666, "about</w>": 667, "ever</w>": 668, "between</w>": 669, "ves</w>": 670, "ord": 671, "ys</w>": 672, "Mar": 673, "z</w>": 674, "three</w>": 675, "while</w>": 676, "ci": 677, "chi": 678, "album</w>": 679, "ames</w>": 680, "ten</w>": 681, "ls</w>": 682, "emp": 683, "ice</w>": 684, "ook</w>": 685, "shed</w>": 686, "Ro": 687, "ving</w>": 688, "ble</w>": 689, "Com": 690, "ener": 691, "later</w>": 692, "tish</w>": 693, "inal</w>": 694, "season</w>": 695, "ational</w>": 696, "new</w>": 697, "produc": 698, "red</w>": 699, "them</w>": 700, "L</w>": 701, "ollow": 702, "ou</w>": 703, "ess": 704, "such</w>": 705, "The": 706, "mer": 707, "od</w>": 708, "gra": 709, "ili": 710, "sic</w>": 711, "Au": 712, "ears</w>": 713, "mon": 714, "British</w>": 715, "ll</w>": 716, "him</w>": 717, "buil": 718, "bel": 719, "cha": 720, "vel": 721, "ang": 722, "sur": 723, "scri": 724, "ong": 725, "000</w>": 726, "and": 727, "ying</w>": 728, "many</w>": 729, "Jo": 730, "any</w>": 731, "fu": 732, "some</w>": 733, "op</w>": 734, "over": 735, "194": 736, "beg": 737, "min": 738, "Nor": 739, "ical</w>": 740, "sub": 741, "She</w>": 742, "ture</w>": 743, "ws</w>": 744, "ect</w>": 745, "ee": 746, "year</w>": 747, "being</w>": 748, "tain</w>": 749, "Ire": 750, "Ireland</w>": 751, "acc": 752, "day</w>": 753, "ud": 754, "rele": 755, "enti": 756, "made</w>": 757, "both</w>": 758, "cri": 759, "ered</w>": 760, "amp": 761, "Re": 762, "arm": 763, "ause</w>": 764, "city</w>": 765, "number</w>": 766, "fore</w>": 767, "became</w>": 768, "side</w>": 769, "This</w>": 770, "histor": 771, "posi": 772, "where</w>": 773, "under</w>": 774, "consi": 775, "ork</w>": 776, "Col": 777, "col": 778, "Whi": 779, "ses</w>": 780, "En": 781, "well</w>": 782, "can</w>": 783, "port</w>": 784, "follow": 785, "tor</w>": 786, "pop": 787, "ement</w>": 788, "ury</w>": 789, "Ger": 790, "eng": 791, "ters</w>": 792, "ular</w>": 793, "h</w>": 794, "10</w>": 795, "war": 796, "ill": 797, "years</w>": 798, "cap": 799, "cal": 800, "poin": 801, "with": 802, "ock</w>": 803, "cu": 804, "own": 805, "arly</w>": 806, "United</w>": 807, "ships</w>": 808, "ating</w>": 809, "owever</w>": 810, "known</w>": 811, "ven</w>": 812, "veral</w>": 813, "charac": 814, "um</w>": 815, "fe</w>": 816, "tly</w>": 817, "app": 818, "fic": 819, "offic": 820, "four</w>": 821, "New</w>": 822, "no</w>": 823, "diff": 824, "rema": 825, "20</w>": 826, "then</w>": 827, "ood</w>": 828, "film</w>": 829, "Jord": 830, "Jordan</w>": 831, "outh</w>": 832, "are": 833, "line</w>": 834, "tre": 835, "reg": 836, "lit": 837, "sm": 838, "part</w>": 839, "Li": 840, "sts</w>": 841, "On</w>": 842, "Le": 843, "fac": 844, "Chri": 845, "oci": 846, "Amer": 847, "Americ": 848, "there</w>": 849, "coun": 850, "sch": 851, "direc": 852, "ected</w>": 853, "Wor": 854, "ste": 855, "through</w>": 856, "ince</w>": 857, "ling</w>": 858, "ose</w>": 859, "cra": 860, "hel": 861, "oper": 862, "before</w>": 863, "ining</w>": 864, "ced</w>": 865, "ann": 866, "star": 867, "inv": 868, "dre": 869, "%</w>": 870, "ors</w>": 871, "des</w>": 872, "Ma": 873, "peri": 874, "sted</w>": 875, "work</w>": 876, "fa": 877, "sul": 878, "dep": 879, "eb": 880, "do": 881, "succ": 882, "ower</w>": 883, "second</w>": 884, "Car": 885, "fer": 886, "game</w>": 887, "cl": 888, "clo": 889, "including</w>": 890, "nor": 891, "198": 892, "ole</w>": 893, "poli": 894, "descri": 895, "uni": 896, "bi": 897, "ed": 898, "these</w>": 899, "ef": 900, "sup": 901, "tes</w>": 902, "fin": 903, "emb": 904, "tri": 905, "ms</w>": 906, "olog": 907, "nam": 908, "30</w>": 909, "Fin": 910, "sk": 911, "No": 912, "dic": 913, "war</w>": 914, "ort</w>": 915, "inst</w>": 916, "began</w>": 917, "row": 918, "my</w>": 919, "end": 920, "self</w>": 921, "several</w>": 922, "aged</w>": 923, "off</w>": 924, "tiv": 925, "conc": 926, "Gal": 927, "against</w>": 928, "contin": 929, "mat": 930, "\u2014</w>": 931, "II</w>": 932, "orig": 933, "pa": 934, "York</w>": 935, "ass</w>": 936, "ale</w>": 937, "Con": 938, "ster</w>": 939, "ry</w>": 940, "dam": 941, "Uni": 942, "urch</w>": 943, "lack</w>": 944, "play</w>": 945, "Wil": 946, "/</w>": 947, "team</w>": 948, "After</w>": 949, "sing": 950, "ople</w>": 951, "dra": 952, "Whe": 953, "Wheel": 954, "Is": 955, "each</w>": 956, "could</w>": 957, "ines</w>": 958, "versi": 959, "ead</w>": 960, "Fren": 961, "ily</w>": 962, "do</w>": 963, "French</w>": 964, "tical</w>": 965, "mis": 966, "ite</w>": 967, "tle</w>": 968, "tro": 969, "Wheeler</w>": 970, "serv": 971, "War</w>": 972, "like</w>": 973, "signed</w>": 974, "century</w>": 975, "chae": 976, "tran": 977, "said</w>": 978, "fam": 979, "very</w>": 980, "recei": 981, "ory</w>": 982, "Joh": 983, "because</w>": 984, "bor": 985, "bed</w>": 986, "devel": 987, "sing</w>": 988, "nment</w>": 989, "gover": 990, "12</w>": 991, "C</w>": 992, "bro": 993, "ave</w>": 994, "tel": 995, "state</w>": 996, "il</w>": 997, "rac": 998, "eg": 999, "50</w>": 1000, "cul": 1001, "vest": 1002, "lation</w>": 1003, "ays</w>": 1004, "Ad": 1005, "Par": 1006, "ought</w>": 1007, "partic": 1008, "long</w>": 1009, "lion</w>": 1010, "Rach": 1011, "Rachel</w>": 1012, "May</w>": 1013, "dered</w>": 1014, "ho": 1015, "same</w>": 1016, "feat": 1017, "ward</w>": 1018, "ony</w>": 1019, "oup</w>": 1020, "retur": 1021, "dition</w>": 1022, "def": 1023, "exc": 1024, "World</w>": 1025, "vari": 1026, "ton</w>": 1027, "Poli": 1028, "low</w>": 1029, "jo": 1030, "ised</w>": 1031, "As</w>": 1032, "$</w>": 1033, "thern</w>": 1034, "port": 1035, "Rom": 1036, "17": 1037, "comple": 1038, "early</w>": 1039, "prom": 1040, "anc": 1041, "vision</w>": 1042, "inf": 1043, "hum": 1044, "develop": 1045, "all": 1046, "til</w>": 1047, "gener": 1048, "States</w>": 1049, "dis": 1050, "od": 1051, "German</w>": 1052, "Galvest": 1053, "Galveston</w>": 1054, "exp": 1055, "ath": 1056, "series</w>": 1057, "zed</w>": 1058, "called</w>": 1059, "win": 1060, "sis</w>": 1061, "br": 1062, "Mu": 1063, "people</w>": 1064, "may</w>": 1065, "vie": 1066, "Fran": 1067, "urop": 1068, "Indi": 1069, "rea": 1070, "ground</w>": 1071, "White</w>": 1072, "up": 1073, "ording</w>": 1074, "name</w>": 1075, "plac": 1076, "ack": 1077, "requ": 1078, "sive</w>": 1079, "form</w>": 1080, "dist": 1081, "until</w>": 1082, "ool</w>": 1083, "although</w>": 1084, "life</w>": 1085, "even</w>": 1086, "193": 1087, "contro": 1088, "ful</w>": 1089, "Di": 1090, "five</w>": 1091, "ip": 1092, "Bo": 1093, "ous": 1094, "18</w>": 1095, "found</w>": 1096, "music</w>": 1097, "ept": 1098, "fun": 1099, "typ": 1100, "u</w>": 1101, "did</w>": 1102, "Na": 1103, "American</w>": 1104, "Je": 1105, "gods</w>": 1106, "released</w>": 1107, "played</w>": 1108, "onal</w>": 1109, "vel</w>": 1110, "Oc": 1111, "area</w>": 1112, "disc": 1113, "ague</w>": 1114, "pos": 1115, "vo": 1116, "spon": 1117, "use</w>": 1118, "larg": 1119, "resul": 1120, "Europ": 1121, "tics</w>": 1122, "around</w>": 1123, "Ju": 1124, "fiel": 1125, "Jun": 1126, "ented</w>": 1127, "ages</w>": 1128, "rela": 1129, "adv": 1130, "provi": 1131, "formed</w>": 1132, "Ge": 1133, "ge": 1134, "cur": 1135, "13</w>": 1136, "On": 1137, "song</w>": 1138, "Hi": 1139, "However</w>": 1140, "fle": 1141, "under": 1142, "Sh": 1143, "ences</w>": 1144, "differ": 1145, "ther": 1146, "took</w>": 1147, "gg": 1148, "stein</w>": 1149, "times</w>": 1150, "since</w>": 1151, "ches</w>": 1152, "high</w>": 1153, "out": 1154, "milit": 1155, "military</w>": 1156, "bri": 1157, "197": 1158, "national</w>": 1159, "record</w>": 1160, "eer</w>": 1161, "Coun": 1162, "nia</w>": 1163, "incre": 1164, "11</w>": 1165, "De": 1166, "ree": 1167, "They</w>": 1168, "del": 1169, "appear": 1170, "men</w>": 1171, "tal</w>": 1172, "ia</w>": 1173, "craft</w>": 1174, "Town": 1175, "try</w>": 1176, "received</w>": 1177, "ome": 1178, "yed</w>": 1179, "ti</w>": 1180, "named</w>": 1181, "[</w>": 1182, "]</w>": 1183, "19</w>": 1184, "ston</w>": 1185, "ker</w>": 1186, "Mon": 1187, "Nic": 1188, "those</w>": 1189, "lead": 1190, "continu": 1191, "view</w>": 1192, "construc": 1193, "site</w>": 1194, "Octo": 1195, "October</w>": 1196, "Char": 1197, "Eng": 1198, "dest": 1199, "ken</w>": 1200, "her": 1201, "described</w>": 1202, "dem": 1203, "sty": 1204, "John</w>": 1205, "million</w>": 1206, "Polish</w>": 1207, "games</w>": 1208, "epis": 1209, "send</w>": 1210, "following</w>": 1211, "ful": 1212, "sta": 1213, "history</w>": 1214, "kel": 1215, "Sar": 1216, "open": 1217, "batt": 1218, "based</w>": 1219, "sol": 1220, "position</w>": 1221, "ject</w>": 1222, "15</w>": 1223, "ball</w>": 1224, "episo": 1225, "cor": 1226, "pi": 1227, "June</w>": 1228, "ends</w>": 1229, "back</w>": 1230, "versity</w>": 1231, "ju": 1232, "Wh": 1233, "stan": 1234, "stitu": 1235, "km</w>": 1236, "scor": 1237, "main</w>": 1238, "speci": 1239, "During</w>": 1240, "ns</w>": 1241, "Sept": 1242, "September</w>": 1243, "sear": 1244, "built</w>": 1245, "government</w>": 1246, "ently</w>": 1247, "Nov": 1248, "ext</w>": 1249, "divi": 1250, "sen": 1251, "Augu": 1252, "Mo": 1253, "org": 1254, "cour": 1255, "udi": 1256, "stud": 1257, "cle": 1258, "Ross</w>": 1259, "large</w>": 1260, "single</w>": 1261, "beli": 1262, "ot</w>": 1263, "species</w>": 1264, "Townsend</w>": 1265, "Finkel": 1266, "Finkelstein</w>": 1267, "Ac": 1268, "ects</w>": 1269, "At</w>": 1270, "ately</w>": 1271, "repres": 1272, "Be": 1273, "six</w>": 1274, "fl": 1275, "another</w>": 1276, "Can": 1277, "Zh": 1278, "along</w>": 1279, "place</w>": 1280, "Ri": 1281, "power</w>": 1282, "respon": 1283, "K</w>": 1284, "me</w>": 1285, "ported</w>": 1286, "included</w>": 1287, "Eg": 1288, "Egyp": 1289, "abli": 1290, "14</w>": 1291, "192": 1292, "ba": 1293, "archae": 1294, "Nicole</w>": 1295, "Apri": 1296, "April</w>": 1297, "establi": 1298, "ove</w>": 1299, "Church</w>": 1300, "character</w>": 1301, "appro": 1302, "if</w>": 1303, "set</w>": 1304, "ities</w>": 1305, "lic": 1306, "16</w>": 1307, "reli": 1308, "ond": 1309, "timony</w>": 1310, "island</w>": 1311, "November</w>": 1312, "book</w>": 1313, "thing</w>": 1314, "home</w>": 1315, "gen": 1316, "ze</w>": 1317, "St</w>": 1318, "ron</w>": 1319, "maj": 1320, "ral</w>": 1321, "omin": 1322, "ative</w>": 1323, "rish</w>": 1324, "There</w>": 1325, "Wi": 1326, "moved</w>": 1327, "career</w>": 1328, "some": 1329, "ility</w>": 1330, "tial</w>": 1331, "Pri": 1332, "now</w>": 1333, "fri": 1334, "196": 1335, "Irish</w>": 1336, "thir": 1337, "ut": 1338, "down</w>": 1339, "what</w>": 1340, "Ne": 1341, "So": 1342, "sions</w>": 1343, "For": 1344, "comman": 1345, "much</w>": 1346, "..": 1347, "M</w>": 1348, "ubli": 1349, "ety</w>": 1350, "Zhou</w>": 1351, "them": 1352, "ach</w>": 1353, "ards</w>": 1354, "ve": 1355, "ss": 1356, "ection</w>": 1357, "ended</w>": 1358, "medi": 1359, "success": 1360, "dy</w>": 1361, "show</w>": 1362, "desig": 1363, "ill</w>": 1364, "posed</w>": 1365, "hal": 1366, "ur</w>": 1367, "inst": 1368, "auth": 1369, "North</w>": 1370, "os</w>": 1371, "ual</w>": 1372, "Sarnia</w>": 1373, "Jan": 1374, "previ": 1375, "...</w>": 1376, "ery</w>": 1377, "17</w>": 1378, "Mi": 1379, "yer</w>": 1380, "int</w>": 1381, "destro": 1382, "August</w>": 1383, "Gre": 1384, "often</w>": 1385, "Christ": 1386, "edi": 1387, "ant": 1388, "B</w>": 1389, "aircraft</w>": 1390, "story</w>": 1391, "original</w>": 1392, "fied</w>": 1393, "order</w>": 1394, "within</w>": 1395, "ments</w>": 1396, "arri": 1397, "left</w>": 1398, "wee": 1399, "won</w>": 1400, "spac": 1401, "University</w>": 1402, "memb": 1403, "per</w>": 1404, "public</w>": 1405, "Acc": 1406, "popu": 1407, "Dec": 1408, "T</w>": 1409, "Fey</w>": 1410, "ements</w>": 1411, "lim": 1412, "less</w>": 1413, "action</w>": 1414, "ca": 1415, "2007</w>": 1416, "ern": 1417, "ean</w>": 1418, "uary</w>": 1419, "world</w>": 1420, "Pro": 1421, "pur": 1422, "leg": 1423, "allow": 1424, "small</w>": 1425, "cla": 1426, "oung</w>": 1427, "sible</w>": 1428, "prot": 1429, "issu": 1430, "still</w>": 1431, "west</w>": 1432, "Bu": 1433, "sid": 1434, "tin</w>": 1435, "oughout</w>": 1436, "No</w>": 1437, "loo": 1438, "light</w>": 1439, "25</w>": 1440, "West</w>": 1441, "195": 1442, "group</w>": 1443, "ven": 1444, "ital</w>": 1445, "set": 1446, "episode</w>": 1447, "ature</w>": 1448, "All</w>": 1449, "ath</w>": 1450, "Se": 1451, "Yue</w>": 1452, "2010</w>": 1453, "using</w>": 1454, "cer": 1455, "best</w>": 1456, "sic": 1457, "Black</w>": 1458, "National</w>": 1459, "Bar": 1460, "family</w>": 1461, "2008</w>": 1462, "December</w>": 1463, "import": 1464, "ried</w>": 1465, "top</w>": 1466, "considered</w>": 1467, "attemp": 1468, "among</w>": 1469, "wro": 1470, "wrote</w>": 1471, "hy": 1472, "2013</w>": 1473, "field</w>": 1474, "syst": 1475, "act</w>": 1476, "due</w>": 1477, "thers</w>": 1478, "lub</w>": 1479, "away</w>": 1480, "tors</w>": 1481, "influ": 1482, "Austr": 1483, "forman": 1484, "li</w>": 1485, "oute</w>": 1486, "will</w>": 1487, "kes</w>": 1488, "ide": 1489, "pers": 1490, "bas": 1491, "yal</w>": 1492, "ner</w>": 1493, "ine": 1494, "wom": 1495, "ouse</w>": 1496, "fire</w>": 1497, "deci": 1498, "ly": 1499, "den</w>": 1500, "vil</w>": 1501, "V</w>": 1502, "2009</w>": 1503, "sent": 1504, "uns</w>": 1505, "According</w>": 1506, "period</w>": 1507, "served</w>": 1508, "bar": 1509, "prof": 1510, "published</w>": 1511, "Tim": 1512, "ghts</w>": 1513, "population</w>": 1514, "dom</w>": 1515, "NB": 1516, "equ": 1517, "east</w>": 1518, "Gu": 1519, "ones</w>": 1520, "ology</w>": 1521, "enn": 1522, "P</w>": 1523, "gold</w>": 1524, "ribu": 1525, "Army</w>": 1526, "make</w>": 1527, "tten</w>": 1528, "bl": 1529, "main": 1530, "style</w>": 1531, "D</w>": 1532, "ously</w>": 1533, "urther</w>": 1534, "yn": 1535, "become</w>": 1536, "ched</w>": 1537, "last</w>": 1538, "town</w>": 1539, "James</w>": 1540, "ck</w>": 1541, "fleet</w>": 1542, "just</w>": 1543, "again</w>": 1544, "plan": 1545, "half</w>": 1546, "dge</w>": 1547, "late</w>": 1548, "human</w>": 1549, "ditional</w>": 1550, "Gener": 1551, "agre": 1552, "eff": 1553, "Sch": 1554, "2006</w>": 1555, "ross</w>": 1556, "win</w>": 1557, "co</w>": 1558, "ley</w>": 1559, "ures</w>": 1560, "fel": 1561, "Da": 1562, "sequ": 1563, "stri": 1564, "Tw": 1565, "40</w>": 1566, "ke": 1567, "near</w>": 1568, "Chi": 1569, "ental</w>": 1570, "Although</w>": 1571, "brea": 1572, "quad": 1573, "Hav": 1574, "ML</w>": 1575, "cam": 1576, "tively</w>": 1577, "arti": 1578, "March</w>": 1579, "south</w>": 1580, "sugg": 1581, "Su": 1582, "ber": 1583, "County</w>": 1584, "Comman": 1585, "va</w>": 1586, "January</w>": 1587, "ats</w>": 1588, "tory</w>": 1589, "stated</w>": 1590, "ail": 1591, "hor": 1592, "ublic</w>": 1593, "sou": 1594, "given</w>": 1595, "im</w>": 1596, "General</w>": 1597, "spite</w>": 1598, "produced</w>": 1599, "continued</w>": 1600, "search</w>": 1601, "ford</w>": 1602, "range</w>": 1603, "ological</w>": 1604, "performan": 1605, "wards</w>": 1606, "you</w>": 1607, "dol": 1608, "2011</w>": 1609, "third</w>": 1610, "ept</w>": 1611, "read": 1612, "Or": 1613, "avy</w>": 1614, "stra": 1615, "City</w>": 1616, "Qu": 1617, "Christm": 1618, "Christmas</w>": 1619, "estern</w>": 1620, "members</w>": 1621, "Po": 1622, "throughout</w>": 1623, "invol": 1624, "23</w>": 1625, "His</w>": 1626, "located</w>": 1627, "acti": 1628, "regi": 1629, "role</w>": 1630, "new": 1631, "trans": 1632, "take</w>": 1633, "different</w>": 1634, "ired</w>": 1635, "recorded</w>": 1636, "ef</w>": 1637, "studi": 1638, "21</w>": 1639, "mp": 1640, "ref": 1641, "came</w>": 1642, "placed</w>": 1643, "Pal": 1644, "King": 1645, "Britain</w>": 1646, "Isra": 1647, "comb": 1648, "phi": 1649, "lish</w>": 1650, "val</w>": 1651, "construction</w>": 1652, "For</w>": 1653, "cy</w>": 1654, "ind</w>": 1655, "atter": 1656, "ching</w>": 1657, "chil": 1658, "La": 1659, "ute</w>": 1660, "Egypti": 1661, "lin": 1662, "without</w>": 1663, "major</w>": 1664, "ality</w>": 1665, "building</w>": 1666, "ick</w>": 1667, "head</w>": 1668, "F</w>": 1669, "fic</w>": 1670, "Ex": 1671, "inten": 1672, "Pre": 1673, "further</w>": 1674, "signi": 1675, "Cor": 1676, "tom": 1677, "These</w>": 1678, "ang</w>": 1679, "tural</w>": 1680, "hea": 1681, "chang": 1682, "tow": 1683, "chan": 1684, "vol": 1685, "simil": 1686, "initi": 1687, "noted</w>": 1688, "ured</w>": 1689, "local</w>": 1690, "Gr": 1691, "reach": 1692, "Cath": 1693, "July</w>": 1694, "relation": 1695, "control</w>": 1696, "ests</w>": 1697, "24</w>": 1698, "eight</w>": 1699, "ested</w>": 1700, "ania</w>": 1701, "deities</w>": 1702, "cast": 1703, "antimony</w>": 1704, "Val": 1705, "One</w>": 1706, "however</w>": 1707, "written</w>": 1708, "When</w>": 1709, "dr": 1710, "Cent": 1711, "row</w>": 1712, "iled</w>": 1713, "returned</w>": 1714, "ales</w>": 1715, "forces</w>": 1716, "opp": 1717, "key</w>": 1718, "point</w>": 1719, "ering</w>": 1720, "tea": 1721, "ban": 1722, "Lond": 1723, "London</w>": 1724, "track</w>": 1725, "water</w>": 1726, "Shi": 1727, "Tru": 1728, "2012</w>": 1729, "ural</w>": 1730, "Fe": 1731, "held</w>": 1732, "so": 1733, "Rep": 1734, "dren</w>": 1735, "ian</w>": 1736, "Kingdom</w>": 1737, "important</w>": 1738, "ult</w>": 1739, "olo": 1740, "system</w>": 1741, "get</w>": 1742, "popular</w>": 1743, "cast</w>": 1744, "sion": 1745, "South</w>": 1746, "assi": 1747, "feet</w>": 1748, "Af": 1749, "clear</w>": 1750, "Ni": 1751, "ina</w>": 1752, "Haven</w>": 1753, "ism</w>": 1754, "include</w>": 1755, "evision</w>": 1756, "ongs</w>": 1757, "should</w>": 1758, "den": 1759, "earli": 1760, "few</w>": 1761, "Australi": 1762, "religi": 1763, "dou": 1764, "unity</w>": 1765, "Europe</w>": 1766, "board</w>": 1767, "Catholi": 1768, "Ser": 1769, "Nathan</w>": 1770, "Lock</w>": 1771, "mem": 1772, "production</w>": 1773, "damaged</w>": 1774, "days</w>": 1775, "signific": 1776, "death</w>": 1777, "langu": 1778, "cel": 1779, "right</w>": 1780, "ants</w>": 1781, "developed</w>": 1782, "release</w>": 1783, "player</w>": 1784, "rest</w>": 1785, "Sp": 1786, "English</w>": 1787, "Rec": 1788, "mor": 1789, "event": 1790, "ually</w>": 1791, "U</w>": 1792, "ths</w>": 1793, "final</w>": 1794, "Northern</w>": 1795, "sour": 1796, "stry</w>": 1797, "\u00e9</w>": 1798, "ron": 1799, "class</w>": 1800, "suff": 1801, "next</w>": 1802, "gave</w>": 1803, "lue</w>": 1804, "pped</w>": 1805, "med</w>": 1806, "guns</w>": 1807, "father</w>": 1808, "ound": 1809, "oot": 1810, "former</w>": 1811, "seen</w>": 1812, "spor": 1813, "100</w>": 1814, "Royal</w>": 1815, "quadron</w>": 1816, "rom": 1817, "ferred</w>": 1818, "Sec": 1819, "emy</w>": 1820, "moder": 1821, "N</w>": 1822, "60</w>": 1823, "Navy</w>": 1824, "ociety</w>": 1825, "GA</w>": 1826, "Card": 1827, "sm</w>": 1828, "duced</w>": 1829, "kers</w>": 1830, "dru": 1831, "tem": 1832, "With</w>": 1833, "22</w>": 1834, "support</w>": 1835, "ularly</w>": 1836, "ring</w>": 1837, "established</w>": 1838, "az": 1839, "ph</w>": 1840, "various</w>": 1841, "remained</w>": 1842, "elec": 1843, "visi": 1844, "ams</w>": 1845, "bs</w>": 1846, "eved</w>": 1847, "vide": 1848, "sses</w>": 1849, "ending</w>": 1850, "grow": 1851, "respec": 1852, "val": 1853, "onom": 1854, "ports</w>": 1855, "sex": 1856, "archi": 1857, "met": 1858, "O</w>": 1859, "ologi": 1860, "ged</w>": 1861, "By</w>": 1862, "disp": 1863, "sent</w>": 1864, "lead</w>": 1865, "pil": 1866, "Rus": 1867, "view": 1868, "Roman</w>": 1869, "lood</w>": 1870, "AML</w>": 1871, "having</w>": 1872, "move</w>": 1873, "my": 1874, "div": 1875, "felt</w>": 1876, "reas": 1877, "too</w>": 1878, "promo": 1879, "Feb": 1880, "Febru": 1881, "February</w>": 1882, "country</w>": 1883, "gun</w>": 1884, "Bro": 1885, "north</w>": 1886, "India</w>": 1887, "vic": 1888, "fem": 1889, "exi": 1890, "wish</w>": 1891, "Pe": 1892, "ll": 1893, "aper</w>": 1894, "associ": 1895, "school</w>": 1896, "scored</w>": 1897, "ens": 1898, "At": 1899, "monum": 1900, "Shiva</w>": 1901, "excav": 1902, "NBA</w>": 1903, "aw": 1904, "him": 1905, "himself</w>": 1906, "ious</w>": 1907, "fini": 1908, "body</w>": 1909, "mer</w>": 1910, "ges</w>": 1911, "children</w>": 1912, "Geor": 1913, "Me": 1914, "Afric": 1915, "!</w>": 1916, "date</w>": 1917, "god</w>": 1918, "spacing</w>": 1919, "Im": 1920, "ways</w>": 1921, "others</w>": 1922, "Lit": 1923, "US</w>": 1924, "pass": 1925, "nec": 1926, "uri": 1927, "coll": 1928, "ols</w>": 1929, "phy</w>": 1930, "ounded</w>": 1931, "toge": 1932, "together</w>": 1933, "onn": 1934, "cir": 1935, "Route</w>": 1936, "indu": 1937, "ane</w>": 1938, "players</w>": 1939, "advant": 1940, "force</w>": 1941, "list</w>": 1942, "tru": 1943, "project</w>": 1944, "depic": 1945, "put</w>": 1946, "writing</w>": 1947, "mm</w>": 1948, "stand": 1949, "previous</w>": 1950, "wit": 1951, "space</w>": 1952, "art</w>": 1953, "television</w>": 1954, "mit": 1955, "reported</w>": 1956, "ounds</w>": 1957, "ai": 1958, "ples</w>": 1959, "least</w>": 1960, "R</w>": 1961, "formation</w>": 1962, "Truj": 1963, "Trujill": 1964, "Trujillo</w>": 1965, "operations</w>": 1966, "went</w>": 1967, "young</w>": 1968, "full</w>": 1969, "created</w>": 1970, "ems</w>": 1971, "similar</w>": 1972, "syn": 1973, "UK</w>": 1974, "enced</w>": 1975, "seum</w>": 1976, "tation</w>": 1977, "quar": 1978, "189": 1979, "ago</w>": 1980, "air</w>": 1981, "claim": 1982, "Fri": 1983, "training</w>": 1984, "Cardinal</w>": 1985, "bar</w>": 1986, "views</w>": 1987, "uk": 1988, "Tha": 1989, "MS</w>": 1990, "shing</w>": 1991, "Jewish</w>": 1992, "raised</w>": 1993, "Per": 1994, "sting</w>": 1995, "fron": 1996, "Music</w>": 1997, "sical</w>": 1998, "-</w>": 1999, "how</w>": 2000, "wal": 2001, "author": 2002, "taken</w>": 2003, "cru": 2004, "never</w>": 2005, "total</w>": 2006, "reached</w>": 2007, "gh</w>": 2008, "appoin": 2009, "version</w>": 2010, "lar</w>": 2011, "Republic</w>": 2012, "once</w>": 2013, "ire</w>": 2014, "seven</w>": 2015, "novel</w>": 2016, "head": 2017, "28</w>": 2018, "ably</w>": 2019, "atory</w>": 2020, "show": 2021, "187": 2022, "\u2019</w>": 2023, "ise</w>": 2024, "League</w>": 2025, "ta</w>": 2026, "result</w>": 2027, "wat": 2028, "damage</w>": 2029, "performance</w>": 2030, "gue</w>": 2031, "intro": 2032, "Pol": 2033, "nest</w>": 2034, "III</w>": 2035, "que</w>": 2036, "we": 2037, "successful</w>": 2038, "ff</w>": 2039, "ash</w>": 2040, "songs</w>": 2041, "ans": 2042, "stone</w>": 2043, "read</w>": 2044, "doc": 2045, "fav": 2046, "occu": 2047, "profes": 2048, "died</w>": 2049, "commer": 2050, "survi": 2051, "NH": 2052, "saw</w>": 2053, "relationship</w>": 2054, "Israel</w>": 2055, "ane": 2056, "While</w>": 2057, "face</w>": 2058, "Har": 2059, "Co": 2060, "service</w>": 2061, "188": 2062, "mix": 2063, "ample</w>": 2064, "indivi": 2065, "individu": 2066, "come</w>": 2067, "addition</w>": 2068, "general</w>": 2069, "exten": 2070, "sident</w>": 2071, "common</w>": 2072, "Christi": 2073, "Early</w>": 2074, "church</w>": 2075, "sci": 2076, "aver": 2077, "cent</w>": 2078, "Atlan": 2079, "sin": 2080, "viol": 2081, "law</w>": 2082, "video</w>": 2083, "short</w>": 2084, "Cap": 2085, "proc": 2086, "conf": 2087, "miles</w>": 2088, "26</w>": 2089, "Union</w>": 2090, "ets</w>": 2091, "wide</w>": 2092, "league</w>": 2093, "eman</w>": 2094, "Bel": 2095, "language</w>": 2096, "Ander": 2097, "Anderson</w>": 2098, "night</w>": 2099, "dollar</w>": 2100, "making</w>": 2101, "Ra": 2102, "director</w>": 2103, "diffic": 2104, "either</w>": 2105, "bers</w>": 2106, "becom": 2107, "ount</w>": 2108, "achi": 2109, "Little</w>": 2110, "186": 2111, "sho": 2112, "level</w>": 2113, "tter</w>": 2114, "anti</w>": 2115, "ada</w>": 2116, "lied</w>": 2117, "Egyptian</w>": 2118, "har": 2119, "advantage</w>": 2120, "design</w>": 2121, "worked</w>": 2122, "An</w>": 2123, "good</w>": 2124, "Rock</w>": 2125, "officers</w>": 2126, "State</w>": 2127, "emplo": 2128, "cial</w>": 2129, "&</w>": 2130, "ash": 2131, "aves</w>": 2132, "ampi": 2133, "political</w>": 2134, "ligh": 2135, "vice</w>": 2136, "can": 2137, "Catholic</w>": 2138, "castle</w>": 2139, "yri": 2140, "tained</w>": 2141, "spea": 2142, "points</w>": 2143, "depend": 2144, "dence</w>": 2145, "identi": 2146, "provided</w>": 2147, "tary</w>": 2148, "activi": 2149, "Cha": 2150, "performed</w>": 2151, "stric": 2152, "born</w>": 2153, "conclu": 2154, "ator</w>": 2155, "white</w>": 2156, "soc": 2157, "How": 2158, "layer</w>": 2159, "curren": 2160, "Island</w>": 2161, "audi": 2162, "Best</w>": 2163, "TV</w>": 2164, "stat": 2165, "France</w>": 2166, "Song</w>": 2167, "characters</w>": 2168, "gran": 2169, "ens</w>": 2170, "acks</w>": 2171, "great": 2172, "offici": 2173, "present</w>": 2174, "shor": 2175, "origin": 2176, "leading</w>": 2177, "particularly</w>": 2178, "go</w>": 2179, "dings</w>": 2180, "bir": 2181, "gl": 2182, "ert</w>": 2183, "ops</w>": 2184, "hind</w>": 2185, "tioned</w>": 2186, "Great</w>": 2187, "School</w>": 2188, "Willi": 2189, "nu": 2190, "double</w>": 2191, "tal": 2192, "2003</w>": 2193, "storm</w>": 2194, "followed</w>": 2195, "God</w>": 2196, "ide</w>": 2197, "Cre": 2198, "discover": 2199, "Sap": 2200, "Sapran": 2201, "Saprang</w>": 2202, "ple</w>": 2203, "does</w>": 2204, "xim": 2205, "kil": 2206, "upon</w>": 2207, "modern</w>": 2208, "live</w>": 2209, "writer</w>": 2210, "tures</w>": 2211, "Two</w>": 2212, "club</w>": 2213, "stitute</w>": 2214, "part": 2215, "ope</w>": 2216, "organi": 2217, "mini": 2218, "Mark": 2219, "scho": 2220, "phy": 2221, "star</w>": 2222, "chart</w>": 2223, "vir": 2224, "example</w>": 2225, "European</w>": 2226, "ukem": 2227, "eption</w>": 2228, "eventually</w>": 2229, "nor</w>": 2230, "lines</w>": 2231, "above</w>": 2232, "aller</w>": 2233, "H</w>": 2234, "women</w>": 2235, "boo": 2236, "ogra": 2237, "Fur": 2238, "usu": 2239, "manag": 2240, "Micha": 2241, "Tex": 2242, "pping</w>": 2243, "Her": 2244, "tec": 2245, "areas</w>": 2246, "?</w>": 2247, "Wilde</w>": 2248, "development</w>": 2249, "ga": 2250, "forms</w>": 2251, "lower</w>": 2252, "official</w>": 2253, "Blue</w>": 2254, "forced</w>": 2255, "lost</w>": 2256, "fully</w>": 2257, "little</w>": 2258, "nat": 2259, "tech": 2260, "appeared</w>": 2261, "ootball</w>": 2262, "ours</w>": 2263, "cher</w>": 2264, "close</w>": 2265, "ically</w>": 2266, "earlier</w>": 2267, "ado</w>": 2268, "tis": 2269, "Love</w>": 2270, "Bul": 2271, "stern</w>": 2272, "utr": 2273, "success</w>": 2274, "Some</w>": 2275, "ensive</w>": 2276, "type</w>": 2277, "America</w>": 2278, "ler</w>": 2279, "Kra": 2280, "Russi": 2281, "battle</w>": 2282, "person</w>": 2283, "mission</w>": 2284, "member</w>": 2285, "evi": 2286, "scen": 2287, "mater": 2288, "sett": 2289, "sional</w>": 2290, "iting</w>": 2291, "ability</w>": 2292, "ened</w>": 2293, "instead</w>": 2294, "Indian</w>": 2295, "fif": 2296, "band</w>": 2297, "long": 2298, "educ": 2299, "compe": 2300, "religious</w>": 2301, "reti": 2302, "Fir": 2303, "taking</w>": 2304, "recog": 2305, "Mor": 2306, "Ass": 2307, "Inter": 2308, "ars</w>": 2309, "Hun": 2310, "2015</w>": 2311, "mir": 2312, "syl": 2313, "Canada</w>": 2314, "Gi": 2315, "Air</w>": 2316, "rick</w>": 2317, "Texas</w>": 2318, "dock</w>": 2319, "leukem": 2320, "2014</w>": 2321, "rel": 2322, "great</w>": 2323, "avail": 2324, "agaz": 2325, "standing</w>": 2326, "Rob": 2327, "schools</w>": 2328, "Ho": 2329, "George</w>": 2330, "estim": 2331, "era</w>": 2332, "cas": 2333, "edy</w>": 2334, "sters</w>": 2335, "nal</w>": 2336, "culture</w>": 2337, "Fle": 2338, "command": 2339, "Sovi": 2340, "Soviet</w>": 2341, "Sa": 2342, "return</w>": 2343, "experi": 2344, "female</w>": 2345, "eve</w>": 2346, "thought</w>": 2347, "ands</w>": 2348, "ign</w>": 2349, "190": 2350, "First</w>": 2351, "aly": 2352, "r</w>": 2353, "ty": 2354, "round</w>": 2355, "bur": 2356, "E</w>": 2357, "lege</w>": 2358, "remains</w>": 2359, "aul</w>": 2360, "we</w>": 2361, "prim": 2362, "sylv": 2363, "dies</w>": 2364, "playing</w>": 2365, "lot</w>": 2366, "ides</w>": 2367, "reve": 2368, "lat": 2369, "oni": 2370, "Gover": 2371, "ockey</w>": 2372, "completed</w>": 2373, "ination</w>": 2374, "behind</w>": 2375, "hand</w>": 2376, "Jack": 2377, "pared</w>": 2378, "ington</w>": 2379, "ol</w>": 2380, "Bi": 2381, "draw": 2382, "mother</w>": 2383, "dian</w>": 2384, "Western</w>": 2385, "gn": 2386, "run": 2387, "Squadron</w>": 2388, "schol": 2389, "Er": 2390, "Friends</w>": 2391, "Ani": 2392, "Aniston</w>": 2393, "aff": 2394, "bal": 2395, "critic": 2396, "review</w>": 2397, "kly</w>": 2398, "draw</w>": 2399, "brought</w>": 2400, "rance</w>": 2401, "largest</w>": 2402, "goal</w>": 2403, "pag": 2404, "across</w>": 2405, "45</w>": 2406, "going</w>": 2407, "four": 2408, "progr": 2409, "Davi": 2410, "rock</w>": 2411, "crew</w>": 2412, "Hol": 2413, "cut</w>": 2414, "pow": 2415, "whom</w>": 2416, "bom": 2417, "story": 2418, "thin": 2419, "sentence</w>": 2420, "opening</w>": 2421, "fre": 2422, "love</w>": 2423, "tar": 2424, "events</w>": 2425, "impro": 2426, "sib": 2427, "500</w>": 2428, "central</w>": 2429, "strong</w>": 2430, "month</w>": 2431, "flo": 2432, "case</w>": 2433, "significant</w>": 2434, "social</w>": 2435, "base</w>": 2436, "ption</w>": 2437, "Fil": 2438, "len</w>": 2439, "ped</w>": 2440, "arian</w>": 2441, "joined</w>": 2442, "teen</w>": 2443, "run</w>": 2444, "plan</w>": 2445, "neutr": 2446, "films</w>": 2447, "sym": 2448, "HMS</w>": 2449, "Markgra": 2450, "Markgraf</w>": 2451, "Furt": 2452, "Furtado</w>": 2453, "yria</w>": 2454, "Jap": 2455, "critics</w>": 2456, "ati": 2457, "occur": 2458, "assigned</w>": 2459, "To</w>": 2460, "Dev": 2461, "designed</w>": 2462, "initially</w>": 2463, "ra</w>": 2464, "You</w>": 2465, "27</w>": 2466, "cop": 2467, "31</w>": 2468, "hom": 2469, "started</w>": 2470, "ket</w>": 2471, "opened</w>": 2472, "police</w>": 2473, "dle</w>": 2474, "jects</w>": 2475, "lands</w>": 2476, "NHL</w>": 2477, "Man": 2478, "ference</w>": 2479, "CA": 2480, "appointed</w>": 2481, "Acad": 2482, "enty</w>": 2483, "Penn": 2484, "bes</w>": 2485, "East</w>": 2486, "hol": 2487, "ket": 2488, "gy</w>": 2489, "expla": 2490, "Shol": 2491, "Sholay</w>": 2492, "saur": 2493, "Batt": 2494, "features</w>": 2495, "limited</w>": 2496, "alth</w>": 2497, "help</w>": 2498, "lear": 2499, "separ": 2500, "inning</w>": 2501, "wan": 2502, "special</w>": 2503, "agazine</w>": 2504, "hou": 2505, "conn": 2506, "sus</w>": 2507, "ecu": 2508, "vate</w>": 2509, "ention</w>": 2510, "particip": 2511, "econom": 2512, "El": 2513, "norm": 2514, "Michael</w>": 2515, "sylvania</w>": 2516, "wood</w>": 2517, "mi</w>": 2518, "Cul": 2519, "states</w>": 2520, "Archae": 2521, "Naz": 2522, "ani</w>": 2523, "outside</w>": 2524, "Por": 2525, "mul": 2526, "parts</w>": 2527, "decided</w>": 2528, "deta": 2529, "sum": 2530, "Park</w>": 2531, "increased</w>": 2532, "feder": 2533, "change</w>": 2534, "eu": 2535, "open</w>": 2536, "ness</w>": 2537, "accomp": 2538, "public": 2539, "2005</w>": 2540, "Australia</w>": 2541, "free</w>": 2542, "contrac": 2543, "road</w>": 2544, "He": 2545, "Paul</w>": 2546, "voc": 2547, "Air": 2548, "Bal": 2549, "elli</w>": 2550, "saurus</w>": 2551, "army</w>": 2552, "tain": 2553, "available</w>": 2554, "insp": 2555, "possible</w>": 2556, "research</w>": 2557, "troops</w>": 2558, "River</w>": 2559, "prob": 2560, "labor": 2561, "week</w>": 2562, "ie</w>": 2563, "sometimes</w>": 2564, "closed</w>": 2565, "wall</w>": 2566, "organ": 2567, "Si": 2568, "tains</w>": 2569, "commercial</w>": 2570, "cou": 2571, "Red</w>": 2572, "stre": 2573, "80</w>": 2574, "yers</w>": 2575, "200</w>": 2576, "struck</w>": 2577, "ashi": 2578, "see</w>": 2579, "Fr": 2580, "rul": 2581, "thic</w>": 2582, "emple</w>": 2583, "2004</w>": 2584, "ico</w>": 2585, "urric": 2586, "urricane</w>": 2587, "zz": 2588, "convo": 2589, "archaeologi": 2590, "crake</w>": 2591, "Valk": 2592, "table</w>": 2593, "real</w>": 2594, "gradu": 2595, "Comm": 2596, "originally</w>": 2597, "piec": 2598, "prec": 2599, "History</w>": 2600, "pressed</w>": 2601, "Colum": 2602, "Vic": 2603, "Associ": 2604, "thre": 2605, "sequently</w>": 2606, "highest</w>": 2607, "press</w>": 2608, "Awards</w>": 2609, "Ali</w>": 2610, "regular</w>": 2611, "natural</w>": 2612, "Other</w>": 2613, "aer": 2614, "sal": 2615, "Eat": 2616, "Eaton</w>": 2617, "anian</w>": 2618, "vy</w>": 2619, "terri": 2620, "armed</w>": 2621, "ils</w>": 2622, "featured</w>": 2623, "allowed</w>": 2624, "Most</w>": 2625, "Thom": 2626, "W</w>": 2627, "ounding</w>": 2628, "uses</w>": 2629, "hib": 2630, "Cro": 2631, "England</w>": 2632, "mid": 2633, "match</w>": 2634, "rown</w>": 2635, "1990</w>": 2636, "ight</w>": 2637, "Phi": 2638, "ders</w>": 2639, "weeks</w>": 2640, "community</w>": 2641, "sea</w>": 2642, "ots</w>": 2643, "Tri": 2644, "tress</w>": 2645, "concer": 2646, "From</w>": 2647, "pea": 2648, "Cl": 2649, "Ta": 2650, "anim": 2651, "carried</w>": 2652, "nine</w>": 2653, "entire</w>": 2654, "lian</w>": 2655, "lies</w>": 2656, "involved</w>": 2657, "hear": 2658, "Off": 2659, "prev": 2660, "agreed</w>": 2661, "almost</w>": 2662, "ampa": 2663, "soon</w>": 2664, "activities</w>": 2665, "gar": 2666, "liter": 2667, "students</w>": 2668, "friend</w>": 2669, "Sha": 2670, "cm</w>": 2671, "study</w>": 2672, "Sco": 2673, "Jack</w>": 2674, "recording</w>": 2675, "dri": 2676, "David</w>": 2677, "very": 2678, "sici": 2679, "divine</w>": 2680, "arch": 2681, "specially</w>": 2682, "cat": 2683, "radi": 2684, "Cat": 2685, "Mad": 2686, "Gol": 2687, "ketball</w>": 2688, "aliers</w>": 2689, "azz</w>": 2690, "NS</w>": 2691, "Institute</w>": 2692, "Palest": 2693, "thews</w>": 2694, "shar": 2695, "evidence</w>": 2696, "ym": 2697, "working</w>": 2698, "sure</w>": 2699, "Robert</w>": 2700, "amm": 2701, "Ci": 2702, "six": 2703, "To": 2704, "ready</w>": 2705, "situ": 2706, "partment</w>": 2707, "indic": 2708, "added</w>": 2709, "Chic": 2710, "wife</w>": 2711, "conduc": 2712, "ored</w>": 2713, "ampion": 2714, "imp": 2715, "William</w>": 2716, "sexual</w>": 2717, "actions</w>": 2718, "caused</w>": 2719, "break</w>": 2720, "believed</w>": 2721, "bridge</w>": 2722, "shown</w>": 2723, "Admir": 2724, "Pennsylvania</w>": 2725, "sla": 2726, "grou": 2727, "argu": 2728, "King</w>": 2729, "ero</w>": 2730, "underground</w>": 2731, "Howe</w>": 2732, "Valkyria</w>": 2733, "units</w>": 2734, "squ": 2735, "awar": 2736, "effor": 2737, "particular</w>": 2738, "generally</w>": 2739, "non</w>": 2740, "ka</w>": 2741, "ney</w>": 2742, "entrance</w>": 2743, "front</w>": 2744, "word</w>": 2745, "professional</w>": 2746, "Christian</w>": 2747, "attack</w>": 2748, "vers</w>": 2749, "sport</w>": 2750, "nature</w>": 2751, "emo": 2752, "might</w>": 2753, "Mc": 2754, "Oper": 2755, "zation</w>": 2756, "G</w>": 2757, "+</w>": 2758, "vers": 2759, "frag": 2760, "ama</w>": 2761, "ogue</w>": 2762, "supported</w>": 2763, "busin": 2764, "treat": 2765, "itself</w>": 2766, "ament</w>": 2767, "eastern</w>": 2768, "whe": 2769, "adop": 2770, "ective</w>": 2771, "AS": 2772, "aria</w>": 2773, "Mex": 2774, "Bulls</w>": 2775, "commandment</w>": 2776, "Mathews</w>": 2777, "aled</w>": 2778, "additional</w>": 2779, "meth": 2780, "names</w>": 2781, "destroyed</w>": 2782, "despite</w>": 2783, "issue</w>": 2784, "represent": 2785, "directed</w>": 2786, "rep": 2787, "Ear": 2788, "aval</w>": 2789, "tured</w>": 2790, "child</w>": 2791, "tt</w>": 2792, "Cup</w>": 2793, "Many</w>": 2794, "laun": 2795, "estimated</w>": 2796, "size</w>": 2797, "contract</w>": 2798, "fru": 2799, "Service</w>": 2800, "Wee": 2801, "astern</w>": 2802, "introduced</w>": 2803, "Stra": 2804, "operation</w>": 2805, "regim": 2806, "Coleman</w>": 2807, "black</w>": 2808, "ution</w>": 2809, "elements</w>": 2810, "turn</w>": 2811, "Direc": 2812, "stly</w>": 2813, "house</w>": 2814, "command</w>": 2815, "finished</w>": 2816, "material</w>": 2817, "listed</w>": 2818, "sold</w>": 2819, "oot</w>": 2820, "But</w>": 2821, "spread</w>": 2822, "nearly</w>": 2823, "smaller</w>": 2824, "larger</w>": 2825, "largely</w>": 2826, "Her</w>": 2827, "1940</w>": 2828, "drew</w>": 2829, "Fi": 2830, "House</w>": 2831, "pho": 2832, "find</w>": 2833, "Association</w>": 2834, "replaced</w>": 2835, "trade</w>": 2836, "mid</w>": 2837, "BC</w>": 2838, "bloc": 2839, "every</w>": 2840, "reviews</w>": 2841, "ai</w>": 2842, "figh": 2843, "traditional</w>": 2844, "especially</w>": 2845, "ranch</w>": 2846, "ulp": 2847, "omet": 2848, "Der": 2849, "Sb</w>": 2850, "adap": 2851, "eig": 2852, "pper</w>": 2853, "towards</w>": 2854, "ority</w>": 2855, "pat": 2856, "title</w>": 2857, "Club</w>": 2858, "previously</w>": 2859, "af": 2860, "Of</w>": 2861, "campa": 2862, "surr": 2863, "Chicago</w>": 2864, "hon": 2865, "books</w>": 2866, "Victor": 2867, "sac": 2868, "Times</w>": 2869, "vey</w>": 2870, "below</w>": 2871, "lik": 2872, "region</w>": 2873, "winning</w>": 2874, "suggested</w>": 2875, "ditions</w>": 2876, "Bill": 2877, "Billboard</w>": 2878, "cy": 2879, "comedy</w>": 2880, "yi</w>": 2881, "ben": 2882, "character": 2883, "metal</w>": 2884, "drum</w>": 2885, "mental</w>": 2886, "90</w>": 2887, "RA": 2888, "Clar": 2889, "anz": 2890, "convoy</w>": 2891, "Tin": 2892, "Second</w>": 2893, "divided</w>": 2894, "whose</w>": 2895, "wanted</w>": 2896, "nee": 2897, "probl": 2898, "fy</w>": 2899, "announ": 2900, "purpo": 2901, "goals</w>": 2902, "execu": 2903, "int": 2904, "acked</w>": 2905, "oned</w>": 2906, "Later</w>": 2907, "Society</w>": 2908, "studio</w>": 2909, "ices</w>": 2910, "international</w>": 2911, "Africa</w>": 2912, "2002</w>": 2913, "via</w>": 2914, "start</w>": 2915, "Despite</w>": 2916, "commis": 2917, "Ba": 2918, "twenty</w>": 2919, "moun": 2920, "Atlantic</w>": 2921, "vered</w>": 2922, "interest</w>": 2923, "emi": 2924, "Ale": 2925, "recogni": 2926, "heavi": 2927, "groups</w>": 2928, "increas": 2929, "ya</w>": 2930, "sites</w>": 2931, "increase</w>": 2932, "wea": 2933, "sculp": 2934, "entary</w>": 2935, "olf</w>": 2936, "ady</w>": 2937, "echi": 2938, "echism</w>": 2939, "Chev": 2940, "Chevaliers</w>": 2941, "eign</w>": 2942, "works</w>": 2943, "appearance</w>": 2944, "tition</w>": 2945, "Captain</w>": 2946, "deter": 2947, "proper": 2948, "Hall</w>": 2949, "Fa": 2950, "Broo": 2951, "Ed": 2952, "marked</w>": 2953, "level": 2954, "term</w>": 2955, "Star</w>": 2956, "center</w>": 2957, "scoring</w>": 2958, "better</w>": 2959, "greatest</w>": 2960, "fication</w>": 2961, "Academy</w>": 2962, "every": 2963, "lled</w>": 2964, "\u00b0</w>": 2965, "difficult</w>": 2966, "arrived</w>": 2967, "Def": 2968, "amb": 2969, "exam": 2970, "far</w>": 2971, "cil</w>": 2972, "submar": 2973, "sail": 2974, "185": 2975, "ox": 2976, "near": 2977, "marri": 2978, "Poland</w>": 2979, "witz</w>": 2980, "Romanian</w>": 2981, "Krak</w>": 2982, "standard</w>": 2983, "praised</w>": 2984, "heavy</w>": 2985, "awarded</w>": 2986, "woman</w>": 2987, "independ": 2988, "appe": 2989, "spo": 2990, "pre</w>": 2991, "ized</w>": 2992, "cro": 2993, "turned</w>": 2994, "remaining</w>": 2995, "struction</w>": 2996, "arms</w>": 2997, "timately</w>": 2998, "ordered</w>": 2999, "That</w>": 3000, "lab": 3001, "gir": 3002, "Ang": 3003, "Queen</w>": 3004, "stic</w>": 3005, "private</w>": 3006, "give</w>": 3007, "Go": 3008, "chap": 3009, "nar": 3010, "ep</w>": 3011, "arg": 3012, "ators</w>": 3013, "utes</w>": 3014, "immedi": 3015, "sil": 3016, "highway</w>": 3017, "reek</w>": 3018, "Charles</w>": 3019, "complete</w>": 3020, "Pr": 3021, "Fern": 3022, "scre": 3023, "tual</w>": 3024, "saying</w>": 3025, "2000</w>": 3026, "settl": 3027, "cultural</w>": 3028, "Catechism</w>": 3029, "Fei</w>": 3030, "Tintin</w>": 3031, "ronic": 3032, "eless</w>": 3033, "ki": 3034, "writers</w>": 3035, "scrip": 3036, "els</w>": 3037, "specific</w>": 3038, "related</w>": 3039, "vement</w>": 3040, "porary</w>": 3041, "ributed</w>": 3042, "ingly</w>": 3043, "mostly</w>": 3044, "explo": 3045, "ics</w>": 3046, "Game</w>": 3047, "jour": 3048, "owned</w>": 3049, "overall</w>": 3050, "serious</w>": 3051, "foc": 3052, "distinc": 3053, "Ter": 3054, "super": 3055, "ior</w>": 3056, "Hen": 3057, "rd</w>": 3058, "nei": 3059, "paper</w>": 3060, "tivity</w>": 3061, "shot</w>": 3062, "36</w>": 3063, "strict</w>": 3064, "magazine</w>": 3065, "claimed</w>": 3066, "Follow": 3067, "Following</w>": 3068, "ues</w>": 3069, "ld": 3070, "ackground</w>": 3071, "greater</w>": 3072, "usually</w>": 3073, "ssed</w>": 3074, "deal</w>": 3075, "hour</w>": 3076, "44</w>": 3077, "minute</w>": 3078, "fourth</w>": 3079, "dro": 3080, "la</w>": 3081, "according</w>": 3082, "mixed</w>": 3083, "occup": 3084, "torpe": 3085, "report</w>": 3086, "Cel": 3087, "Hor": 3088, "flying</w>": 3089, "court</w>": 3090, "ba</w>": 3091, "los": 3092, "oid</w>": 3093, "Mini": 3094, "ris": 3095, "Pet": 3096, "excavation</w>": 3097, "archaeological</w>": 3098, "Clark": 3099, "Clarkson</w>": 3100, "secre": 3101, "Dar": 3102, "killed</w>": 3103, "duction</w>": 3104, "10": 3105, "ank</w>": 3106, "2001</w>": 3107, "already</w>": 3108, "iri": 3109, "historic</w>": 3110, "education</w>": 3111, "sev": 3112, "provide</w>": 3113, "southern</w>": 3114, "spital</w>": 3115, "Lor": 3116, "hab": 3117, "native</w>": 3118, "bus</w>": 3119, "terms</w>": 3120, "inj": 3121, "average</w>": 3122, "Division</w>": 3123, "stage</w>": 3124, "College</w>": 3125, "Du": 3126, "eed</w>": 3127, "inches</w>": 3128, "nomin": 3129, "industry</w>": 3130, "Cullen</w>": 3131, "agno": 3132, "1996</w>": 3133, "broad": 3134, "sky</w>": 3135, "albums</w>": 3136, "Ton": 3137, "viation</w>": 3138, "Fleet</w>": 3139, "corn</w>": 3140, "Mexico</w>": 3141, "End</w>": 3142, "marriage</w>": 3143, "Germany</w>": 3144, "sources</w>": 3145, "shop</w>": 3146, "gates</w>": 3147, "horses</w>": 3148, "Dersho": 3149, "Dershowitz</w>": 3150, "Chronic": 3151, "lay</w>": 3152, "nation</w>": 3153, "met</w>": 3154, "ense</w>": 3155, "Battle</w>": 3156, "mean": 3157, "know": 3158, "rather</w>": 3159, "response</w>": 3160, "required</w>": 3161, "need</w>": 3162, "cho": 3163, "save</w>": 3164, "tting</w>": 3165, "ilities</w>": 3166, "29</w>": 3167, "ances</w>": 3168, "Cam": 3169, "mas": 3170, "company</w>": 3171, "mitted</w>": 3172, "manu": 3173, "rap": 3174, "docum": 3175, "naval</w>": 3176, "months</w>": 3177, "longer</w>": 3178, "1994</w>": 3179, "Barker</w>": 3180, "sem": 3181, "enough</w>": 3182, "FI": 3183, "teams</w>": 3184, "tries</w>": 3185, "becoming</w>": 3186, "Cana": 3187, "fifth</w>": 3188, "helped</w>": 3189, "pas": 3190, "alty</w>": 3191, "Central</w>": 3192, "circ": 3193, "ui": 3194, "newsp": 3195, "says</w>": 3196, "theast</w>": 3197, "tons</w>": 3198, "sw": 3199, "tually</w>": 3200, "Hou": 3201, "ranked</w>": 3202, "Te": 3203, "men": 3204, "image</w>": 3205, "fig": 3206, "hun": 3207, "dical</w>": 3208, "duce</w>": 3209, "serves</w>": 3210, "Are": 3211, "Area</w>": 3212, "Pa": 3213, "monument</w>": 3214, "blood</w>": 3215, "Young</w>": 3216, "workers</w>": 3217, "ino</w>": 3218, "Geoff</w>": 3219, "positive</w>": 3220, "expan": 3221, "pan": 3222, "minor</w>": 3223, "directly</w>": 3224, "happ": 3225, "certain</w>": 3226, "serve</w>": 3227, "defe": 3228, "tra</w>": 3229, "Rich": 3230, "twork</w>": 3231, "Museum</w>": 3232, "Since</w>": 3233, "Wal": 3234, "hold</w>": 3235, "deli": 3236, "probably</w>": 3237, "shows</w>": 3238, "famili": 3239, "suffered</w>": 3240, "don</w>": 3241, "J</w>": 3242, "scienti": 3243, "ape</w>": 3244, "lot": 3245, "thus</w>": 3246, "allowing</w>": 3247, "failed</w>": 3248, "minutes</w>": 3249, "tig": 3250, "lights</w>": 3251, "Studi": 3252, "rical</w>": 3253, "70</w>": 3254, "Bay</w>": 3255, "dez</w>": 3256, "enth</w>": 3257, "therap": 3258, "asty</w>": 3259, "architec": 3260, "Madero</w>": 3261, "reac": 3262, "oose</w>": 3263, "Om": 3264, "basketball</w>": 3265, "Lady</w>": 3266, "Tonin": 3267, "Tonin\u00e1": 3268, "Tonin\u00e1</w>": 3269, "western</w>": 3270, "always</w>": 3271, "acqu": 3272, "officer</w>": 3273, "asked</w>": 3274, "themsel": 3275, "themselves</w>": 3276, "structure</w>": 3277, "constructed</w>": 3278, "ata</w>": 3279, "tations</w>": 3280, "announced</w>": 3281, "senal</w>": 3282, "1942</w>": 3283, "tee</w>": 3284, "emer": 3285, "personal</w>": 3286, "ipment</w>": 3287, "Department</w>": 3288, "pair</w>": 3289, "alter": 3290, "Bl": 3291, "broken</w>": 3292, "ne</w>": 3293, "attention</w>": 3294, "analy": 3295, "ey": 3296, "things</w>": 3297, "institu": 3298, "hours</w>": 3299, "meas": 3300, "promin": 3301, "Jackets</w>": 3302, "itch": 3303, "source</w>": 3304, "ah</w>": 3305, "dance</w>": 3306, "mix</w>": 3307, "32</w>": 3308, "primary</w>": 3309, "eph": 3310, "Admiral</w>": 3311, "positions</w>": 3312, "theat": 3313, "business</w>": 3314, "canc": 3315, "raid</w>": 3316, "ere": 3317, "vill": 3318, "past</w>": 3319, "whole</w>": 3320, "figure</w>": 3321, "1939</w>": 3322, "declar": 3323, "lig": 3324, "caves</w>": 3325, "jazz</w>": 3326, "rapped</w>": 3327, "Comp": 3328, "Allo": 3329, "Allosaurus</w>": 3330, "Zanz": 3331, "Zanzi": 3332, "aries</w>": 3333, "Kur": 3334, "feature</w>": 3335, "offered</w>": 3336, "beginning</w>": 3337, "Like</w>": 3338, "true</w>": 3339, "ario</w>": 3340, "supp": 3341, "attempted</w>": 3342, "stration</w>": 3343, "sioned</w>": 3344, "thy</w>": 3345, "entered</w>": 3346, "Cla": 3347, "Mid": 3348, "services</w>": 3349, "influence</w>": 3350, "society</w>": 3351, "servation</w>": 3352, "1944</w>": 3353, "Am": 3354, "nuclear</w>": 3355, "sor": 3356, "event</w>": 3357, "loss</w>": 3358, "draft</w>": 3359, "eigh": 3360, "prior</w>": 3361, "sign</w>": 3362, "debut</w>": 3363, "cks</w>": 3364, "arily</w>": 3365, "coach</w>": 3366, "Pi": 3367, "inch</w>": 3368, "eter</w>": 3369, "current</w>": 3370, "attempt</w>": 3371, "controlled</w>": 3372, "Fernan": 3373, "Fernandez</w>": 3374, "Award</w>": 3375, "cruis": 3376, "wing</w>": 3377, "boats</w>": 3378, "aim": 3379, "whether</w>": 3380, "Bec": 3381, "Because</w>": 3382, "unities</w>": 3383, "bodies</w>": 3384, "ynasty</w>": 3385, "Ru": 3386, "na": 3387, "coins</w>": 3388, "regime</w>": 3389, "Em": 3390, "Stef": 3391, "Cru": 3392, "pen": 3393, "down": 3394, "growth</w>": 3395, "types</w>": 3396, "soldi": 3397, "proposed</w>": 3398, "taining</w>": 3399, "asp": 3400, "tower</w>": 3401, "Government</w>": 3402, "wid": 3403, "urity</w>": 3404, "batter": 3405, "conver": 3406, "campaign</w>": 3407, "ient</w>": 3408, "abor": 3409, "ords</w>": 3410, "amed</w>": 3411, "must</w>": 3412, "station</w>": 3413, "ades</w>": 3414, "resid": 3415, "Gir": 3416, "Old</w>": 3417, "tour": 3418, "ampionship</w>": 3419, "International</w>": 3420, "clos": 3421, "managed</w>": 3422, "changed</w>": 3423, "tionally</w>": 3424, "discus": 3425, "Camp": 3426, "earned</w>": 3427, "metres</w>": 3428, "fal": 3429, "Franc": 3430, "notes</w>": 3431, "anced</w>": 3432, "means</w>": 3433, "winds</w>": 3434, "Commander</w>": 3435, "possib": 3436, "Year</w>": 3437, "accep": 3438, "1995</w>": 3439, "therapy</w>": 3440, "ods</w>": 3441, "ouri": 3442, "sound</w>": 3443, "Priest</w>": 3444, "Cast": 3445, "president</w>": 3446, "Golden</w>": 3447, "Jer": 3448, "gs</w>": 3449, "Russian</w>": 3450, "arts</w>": 3451, "Antimony</w>": 3452, "Bey": 3453, "Omar</w>": 3454, "pit": 3455, "told</w>": 3456, "location</w>": 3457, "battle": 3458, "weap": 3459, "erous</w>": 3460, "cause</w>": 3461, "post</w>": 3462, "capital</w>": 3463, "instru": 3464, "plans</w>": 3465, "latter</w>": 3466, "leng": 3467, "princ": 3468, "sides</w>": 3469, "revi": 3470, "boat</w>": 3471, "49</w>": 3472, "domin": 3473, "Fre": 3474, "ership</w>": 3475, "care</w>": 3476, "teaching</w>": 3477, "conducted</w>": 3478, "lined</w>": 3479, "cover</w>": 3480, "photo": 3481, "occurred</w>": 3482, "individuals</w>": 3483, "Columbus</w>": 3484, "33</w>": 3485, "represented</w>": 3486, "John": 3487, "mod": 3488, "300</w>": 3489, "400</w>": 3490, "oms</w>": 3491, "stars</w>": 3492, "subsequently</w>": 3493, "Several</w>": 3494, "direct</w>": 3495, "passed</w>": 3496, "escap": 3497, "responsible</w>": 3498, "cells</w>": 3499, "program</w>": 3500, "regar": 3501, "living</w>": 3502, "frequ": 3503, "Mont": 3504, "prac": 3505, "Force</w>": 3506, "lightly</w>": 3507, "Director</w>": 3508, "reaction</w>": 3509, "ican</w>": 3510, "hurricane</w>": 3511, "Houston</w>": 3512, "Coldrum</w>": 3513, "archaeology</w>": 3514, "leukemia</w>": 3515, "chess</w>": 3516, "Chronicles</w>": 3517, "Medi": 3518, "Vi": 3519, "evol": 3520, "ories</w>": 3521, "call</w>": 3522, "records</w>": 3523, "see": 3524, "aband": 3525, "cient</w>": 3526, "guit": 3527, "Fl": 3528, "Ark": 3529, "airs</w>": 3530, "Long</w>": 3531, "Mis": 3532, "issued</w>": 3533, "equipment</w>": 3534, "Thomas</w>": 3535, "1970</w>": 3536, "finally</w>": 3537, "sister</w>": 3538, "ography</w>": 3539, "Black": 3540, "room</w>": 3541, "ran</w>": 3542, "Gar": 3543, "coast</w>": 3544, "1941</w>": 3545, "orial</w>": 3546, "popul": 3547, "arity</w>": 3548, "offs</w>": 3549, "ov": 3550, "hit</w>": 3551, "It": 3552, "Itali": 3553, "credi": 3554, "exper": 3555, "tit": 3556, "makes</w>": 3557, "torpedo</w>": 3558, "1980</w>": 3559, "critical</w>": 3560, "floo": 3561, "Eastern</w>": 3562, "Hung": 3563, "oda</w>": 3564, "shr": 3565, "estiv": 3566, "heavily</w>": 3567, "35</w>": 3568, "associated</w>": 3569, "viewed</w>": 3570, "typically</w>": 3571, "refused</w>": 3572, "agle</w>": 3573, "storyline</w>": 3574, "cham": 3575, "German": 3576, "tomb</w>": 3577, "Wrapped</w>": 3578, "sin</w>": 3579, "Creut": 3580, "Creutz</w>": 3581, "referred</w>": 3582, "Pla": 3583, "hand": 3584, "portra": 3585, "tially</w>": 3586, "selected</w>": 3587, "asses</w>": 3588, "takes</w>": 3589, "officially</w>": 3590, "numbers</w>": 3591, "soldiers</w>": 3592, "combined</w>": 3593, "eep</w>": 3594, "removed</w>": 3595, "bon": 3596, "scene</w>": 3597, "highly</w>": 3598, "inspired</w>": 3599, "artists</w>": 3600, "Cri": 3601, "com</w>": 3602, "transferred</w>": 3603, "sey</w>": 3604, "ultimately</w>": 3605, "Smi": 3606, "Ab": 3607, "office</w>": 3608, "lac": 3609, "museum</w>": 3610, "Sim": 3611, "eur</w>": 3612, "Sur": 3613, "spent</w>": 3614, "lars</w>": 3615, "pursu": 3616, "1960</w>": 3617, "respectively</w>": 3618, "oliday</w>": 3619, "1930</w>": 3620, "bia</w>": 3621, "1998</w>": 3622, "chall": 3623, "acting</w>": 3624, "course</w>": 3625, "male</w>": 3626, "likely</w>": 3627, "changes</w>": 3628, "rate</w>": 3629, "fired</w>": 3630, "Angel": 3631, "ques": 3632, "lling</w>": 3633, "Dre": 3634, "silver</w>": 3635, "Cour": 3636, "annual</w>": 3637, "captured</w>": 3638, "speed</w>": 3639, "civil</w>": 3640, "ashion</w>": 3641, "tan</w>": 3642, "Egypt</w>": 3643, "creation</w>": 3644, "grew</w>": 3645, "process</w>": 3646, "monuments</w>": 3647, "Hea": 3648, "ricul": 3649, "fields</w>": 3650, "Group</w>": 3651, "square</w>": 3652, "az</w>": 3653, "rania</w>": 3654, "tellig": 3655, "RAA": 3656, "RAAF</w>": 3657, "sentences</w>": 3658, "Gang": 3659, "va": 3660, "camps</w>": 3661, "spit": 3662, "lec": 3663, "Norman</w>": 3664, "olithic</w>": 3665, "176": 3666, "illar": 3667, "approach</w>": 3668, "health</w>": 3669, "staff</w>": 3670, "idea</w>": 3671, "fer</w>": 3672, "ising</w>": 3673, "acy</w>": 3674, "summer</w>": 3675, "conven": 3676, "alled</w>": 3677, "intended</w>": 3678, "quic": 3679, "quickly</w>": 3680, "giving</w>": 3681, "fact</w>": 3682, "lict</w>": 3683, "civi": 3684, "consisted</w>": 3685, "phia</w>": 3686, "Records</w>": 3687, "continue</w>": 3688, "married</w>": 3689, "Histor": 3690, "post": 3691, "friends</w>": 3692, "ext": 3693, "photogra": 3694, "opport": 3695, "Indu": 3696, "deep</w>": 3697, "Los</w>": 3698, "historical</w>": 3699, "contra": 3700, "Carol": 3701, "Canadian</w>": 3702, "celeb": 3703, "1999</w>": 3704, "manager</w>": 3705, "future</w>": 3706, "ondary</w>": 3707, "ingui": 3708, "figu": 3709, "figures</w>": 3710, "promoted</w>": 3711, "rated</w>": 3712, "producer</w>": 3713, "tour</w>": 3714, "aerod": 3715, "pilot</w>": 3716, "discovered</w>": 3717, "ric</w>": 3718, "pris": 3719, "quo": 3720, "aging</w>": 3721, "Vide": 3722, "Video</w>": 3723, "Sul": 3724, "Stre": 3725, "cave</w>": 3726, "ha</w>": 3727, "ox</w>": 3728, "ore": 3729, "zom": 3730, "bree": 3731, "Reines</w>": 3732, "Zanzibar</w>": 3733, "dos</w>": 3734, "Sen": 3735, "theme</w>": 3736, "text</w>": 3737, "route</w>": 3738, "approxim": 3739, "interview</w>": 3740, "Its</w>": 3741, "poten": 3742, "buildings</w>": 3743, "federal</w>": 3744, "determ": 3745, "Smith</w>": 3746, "surren": 3747, "President</w>": 3748, "shment</w>": 3749, "tically</w>": 3750, "Center</w>": 3751, "Australian</w>": 3752, "1920</w>": 3753, "vil": 3754, "retired</w>": 3755, "unable</w>": 3756, "1943</w>": 3757, "ency</w>": 3758, "football</w>": 3759, "initial</w>": 3760, "kra": 3761, "isation</w>": 3762, "Latin</w>": 3763, "basis</w>": 3764, "pel": 3765, "calling</w>": 3766, "effect</w>": 3767, "forming</w>": 3768, "travel": 3769, "suppor": 3770, "ori": 3771, "ri</w>": 3772, "Ara": 3773, "accepted</w>": 3774, "Film</w>": 3775, "Thak": 3776, "din": 3777, "42</w>": 3778, "god": 3779, "viron": 3780, "mur": 3781, "includes</w>": 3782, "Rul": 3783, "empha": 3784, "titu": 3785, "Domin": 3786, "extre": 3787, "residents</w>": 3788, "assic</w>": 3789, "engaged</w>": 3790, "radio</w>": 3791, "concluded</w>": 3792, "risk</w>": 3793, "slightly</w>": 3794, "wel": 3795, "Charlot": 3796, "Charlotte</w>": 3797, "Urania</w>": 3798, "Med": 3799, "Cra": 3800, "Finals</w>": 3801, "aire</w>": 3802, "Pat": 3803, "Germans</w>": 3804, "archaeologist</w>": 3805, "Ye": 3806, "PS</w>": 3807, "martial</w>": 3808, "Villar": 3809, "Villaret</w>": 3810, "Japan</w>": 3811, "sun": 3812, "enemy</w>": 3813, "ongside</w>": 3814, "remain</w>": 3815, "peace</w>": 3816, "revol": 3817, "create</w>": 3818, "revealed</w>": 3819, "illu": 3820, "ume</w>": 3821, "quarters</w>": 3822, "commander</w>": 3823, "Maj": 3824, "specim": 3825, "necess": 3826, "believ": 3827, "situation</w>": 3828, "hands</w>": 3829, "mach": 3830, "Chap": 3831, "Post</w>": 3832, "sixth</w>": 3833, "surrounding</w>": 3834, "pression</w>": 3835, "Me</w>": 3836, "ught</w>": 3837, "yle</w>": 3838, "War": 3839, "Sw": 3840, "Girls</w>": 3841, "rights</w>": 3842, "allow</w>": 3843, "mainly</w>": 3844, "gro": 3845, "variety</w>": 3846, "Chine": 3847, "Chinese</w>": 3848, "Hockey</w>": 3849, "stant</w>": 3850, "forward</w>": 3851, "Up": 3852, "normal</w>": 3853, "Tel": 3854, "phic</w>": 3855, "oes</w>": 3856, "Be</w>": 3857, "any": 3858, "obj": 3859, "actress</w>": 3860, "assa": 3861, "strong": 3862, "Thr": 3863, "older</w>": 3864, "practi": 3865, "And</w>": 3866, "Council</w>": 3867, "admini": 3868, "consider": 3869, "nyi</w>": 3870, "deri": 3871, "acre</w>": 3872, "techni": 3873, "nearby</w>": 3874, "Chris</w>": 3875, "copies</w>": 3876, "abbar</w>": 3877, "Land</w>": 3878, "baby</w>": 3879, "anese</w>": 3880, "serving</w>": 3881, "ap</w>": 3882, "upper</w>": 3883, "effort</w>": 3884, "ential</w>": 3885, "sense</w>": 3886, "exclu": 3887, "repe": 3888, "foot</w>": 3889, "subject</w>": 3890, "property</w>": 3891, "classi": 3892, "rif": 3893, "oil</w>": 3894, "District</w>": 3895, "floor</w>": 3896, "money</w>": 3897, "collabor": 3898, "critic</w>": 3899, "da</w>": 3900, "Middle</w>": 3901, "favor": 3902, "techn": 3903, "Pen": 3904, "Wales</w>": 3905, "Tre": 3906, "stance</w>": 3907, "Ano": 3908, "Another</w>": 3909, "launched</w>": 3910, "active</w>": 3911, "ulf</w>": 3912, "39</w>": 3913, "Hum": 3914, "resulted</w>": 3915, "onnel</w>": 3916, "percent</w>": 3917, "results</w>": 3918, "Jesus</w>": 3919, "engine": 3920, "woo": 3921, "Tr": 3922, "county</w>": 3923, "identified</w>": 3924, "US": 3925, "Iron</w>": 3926, "mph</w>": 3927, "Secre": 3928, "soli": 3929, "demon": 3930, "79</w>": 3931, "musici": 3932, "bing</w>": 3933, "offer</w>": 3934, "brother</w>": 3935, "1991</w>": 3936, "tin": 3937, "600</w>": 3938, "deb": 3939, "alone</w>": 3940, "information</w>": 3941, "cited</w>": 3942, "did": 3943, "rely</w>": 3944, "ger</w>": 3945, "opini": 3946, "newspaper</w>": 3947, "produce</w>": 3948, "ves": 3949, "elings</w>": 3950, "Street</w>": 3951, "95</w>": 3952, "Brac": 3953, "175": 3954, "ao</w>": 3955, "Crus": 3956, "higher</w>": 3957, "meaning</w>": 3958, "approximately</w>": 3959, "themes</w>": 3960, "tracks</w>": 3961, "People</w>": 3962, "15": 3963, "emed</w>": 3964, "aci": 3965, "attrac": 3966, "perc": 3967, "angers</w>": 3968, "newly</w>": 3969, "walls</w>": 3970, "leav": 3971, "leaving</w>": 3972, "after": 3973, "list": 3974, "ssi": 3975, "hop": 3976, "aired</w>": 3977, "loy": 3978, "families</w>": 3979, "today</w>": 3980, "Sci": 3981, "augh": 3982, "author</w>": 3983, "influenced</w>": 3984, "1988</w>": 3985, "1950</w>": 3986, "Forces</w>": 3987, "participated</w>": 3988, "African</w>": 3989, "Football</w>": 3990, "dedic": 3991, "ribution</w>": 3992, "gene": 3993, "prominent</w>": 3994, "seasons</w>": 3995, "consec": 3996, "Bru": 3997, "wins</w>": 3998, "Stan": 3999, "immediately</w>": 4000, "saves</w>": 4001, "Time</w>": 4002, "High</w>": 4003, "ernon</w>": 4004, "da": 4005, "section</w>": 4006, "expressed</w>": 4007, "reduced</w>": 4008, "verse</w>": 4009, "drawn</w>": 4010, "award</w>": 4011, "contem": 4012, "seven": 4013, "seventh</w>": 4014, "itation</w>": 4015, "secondary</w>": 4016, "covered</w>": 4017, "perf": 4018, "dead</w>": 4019, "practice</w>": 4020, "meant</w>": 4021, "food</w>": 4022, "ounts</w>": 4023, "fall</w>": 4024, "Saint</w>": 4025, "Lewi": 4026, "coin</w>": 4027, "replac": 4028, "China</w>": 4029, "fictional</w>": 4030, "expe": 4031, "NL</w>": 4032, "Devin</w>": 4033, "agogue</w>": 4034, "Holoc": 4035, "Holocau": 4036, "Holocaust</w>": 4037, "Branch</w>": 4038, "Madi": 4039, "Madison</w>": 4040, "Loose</w>": 4041, "Stefani</w>": 4042, "breeding</w>": 4043, "Hob": 4044, "Hobbs</w>": 4045, "type": 4046, "Earnest</w>": 4047, "Rel": 4048, "unit</w>": 4049, "alized</w>": 4050, "progre": 4051, "individual</w>": 4052, "alist</w>": 4053, "essor</w>": 4054, "majority</w>": 4055, "piece</w>": 4056, "reason</w>": 4057, "Richard</w>": 4058, "planned</w>": 4059, "ana</w>": 4060, "ansas</w>": 4061, "till": 4062, "widely</w>": 4063, "authorities</w>": 4064, "prevent</w>": 4065, "yet</w>": 4066, "officials</w>": 4067, "fell</w>": 4068, "47</w>": 4069, "emical</w>": 4070, "spiri": 4071, "Mat": 4072, "occupi": 4073, "mun": 4074, "hired</w>": 4075, "Blackie</w>": 4076, "mel": 4077, "prin": 4078, "Le</w>": 4079, "countries</w>": 4080, "matches</w>": 4081, "incid": 4082, "complex</w>": 4083, "mouth</w>": 4084, "Gulf</w>": 4085, "compared</w>": 4086, "Phila": 4087, "Philadel": 4088, "Philadelphia</w>": 4089, "tied</w>": 4090, "itted</w>": 4091, "Italian</w>": 4092, "atic</w>": 4093, "72</w>": 4094, "pop</w>": 4095, "got</w>": 4096, "annel</w>": 4097, "ull</w>": 4098, "inner</w>": 4099, "ecting</w>": 4100, "lywood</w>": 4101, "tainment</w>": 4102, "vinc": 4103, "flight</w>": 4104, "godde": 4105, "deity</w>": 4106, "tradition</w>": 4107, "adopted</w>": 4108, "estival</w>": 4109, "desi": 4110, "Slayer</w>": 4111, "Met": 4112, "temper": 4113, "Sou": 4114, "oppon": 4115, "telligence</w>": 4116, "Age</w>": 4117, "vessel": 4118, "vessels</w>": 4119, "NBC</w>": 4120, "pregn": 4121, "ma</w>": 4122, "hair": 4123, "Strapping</w>": 4124, "Home</w>": 4125, "achieved</w>": 4126, "aster</w>": 4127, "stones</w>": 4128, "Gabbar</w>": 4129, "ansfield</w>": 4130, "g\u00e9</w>": 4131, "Gw": 4132, "hygr": 4133, "hygromet": 4134, "hygrometric": 4135, "hygrometricus</w>": 4136, "Uy": 4137, "Uygh": 4138, "Romania</w>": 4139, "Gangan": 4140, "Ganganelli</w>": 4141, "Brackn": 4142, "Bracknell</w>": 4143, "CPS</w>": 4144, "camp</w>": 4145, "moves</w>": 4146, "skil": 4147, "sen</w>": 4148, "orders</w>": 4149, "losses</w>": 4150, "lives</w>": 4151, "incor": 4152, "expected</w>": 4153, "chest": 4154, "occa": 4155, "purch": 4156, "Tower</w>": 4157, "Buil": 4158, "1997</w>": 4159, "interpre": 4160, "there": 4161, "successfully</w>": 4162, "75</w>": 4163, "activity</w>": 4164, "ancial</w>": 4165, "design": 4166, "influences</w>": 4167, "competition</w>": 4168, "taught</w>": 4169, "1918</w>": 4170, "Hill</w>": 4171, "visited</w>": 4172, "esting</w>": 4173, "dated</w>": 4174, "lan</w>": 4175, "Sea</w>": 4176, "northern</w>": 4177, "pol": 4178, "tt": 4179, "reports</w>": 4180, "moving</w>": 4181, "consecu": 4182, "consecutive</w>": 4183, "person": 4184, "tories</w>": 4185, "inated</w>": 4186, "Three</w>": 4187, "Conference</w>": 4188, "refl": 4189, "agents</w>": 4190, "decision</w>": 4191, "famous</w>": 4192, "Sun": 4193, "Scot": 4194, "ells</w>": 4195, "Carolina</w>": 4196, "Cu": 4197, "Spani": 4198, "Spanish</w>": 4199, "debu": 4200, "shoo": 4201, "Enter": 4202, "cerem": 4203, "94</w>": 4204, "ander</w>": 4205, "Fer": 4206, "symbo": 4207, "thesis</w>": 4208, "represent</w>": 4209, "physical</w>": 4210, "keep": 4211, "dy": 4212, "acts</w>": 4213, "Temple</w>": 4214, "presented</w>": 4215, "effects</w>": 4216, "We</w>": 4217, "dry</w>": 4218, "avoid</w>": 4219, "follow</w>": 4220, "enting</w>": 4221, "agricul": 4222, "factory</w>": 4223, "Ox": 4224, "Oxford</w>": 4225, "conditions</w>": 4226, "guides</w>": 4227, "dollars</w>": 4228, "Act</w>": 4229, "Eagle</w>": 4230, "fol": 4231, "premi": 4232, "emic</w>": 4233, "Varg": 4234, "Vargas</w>": 4235, "Llos": 4236, "Llosa</w>": 4237, "Tra": 4238, "ese</w>": 4239, "SNL</w>": 4240, "couple</w>": 4241, "cell</w>": 4242, "Parva": 4243, "Parvati</w>": 4244, "Water</w>": 4245, "MV": 4246, "Mag": 4247, "studies</w>": 4248, "OT</w>": 4249, "Palestine</w>": 4250, "RA</w>": 4251, "hem": 4252, "Nf</w>": 4253, "Alg": 4254, "Algernon</w>": 4255, "Fastr": 4256, "Fastra</w>": 4257, "Station</w>": 4258, "done</w>": 4259, "awa</w>": 4260, "something</w>": 4261, "Spec": 4262, "experience</w>": 4263, "weapons</w>": 4264, "nd</w>": 4265, "becomes</w>": 4266, "separate</w>": 4267, "amount</w>": 4268, "poor</w>": 4269, "coming</w>": 4270, "Wat": 4271, "istic</w>": 4272, "Will</w>": 4273, "Arkansas</w>": 4274, "Major</w>": 4275, "Civil</w>": 4276, "iz": 4277, "Henry</w>": 4278, "necessary</w>": 4279, "dges</w>": 4280, "rat": 4281, "euten": 4282, "Brooks</w>": 4283, "occupied</w>": 4284, "paid</w>": 4285, "Public</w>": 4286, "daugh": 4287, "ening</w>": 4288, "literature</w>": 4289, "publication</w>": 4290, "sex</w>": 4291, "planning</w>": 4292, "hibi": 4293, "43</w>": 4294, "FA</w>": 4295, "sia</w>": 4296, "access</w>": 4297, "patter": 4298, "economic</w>": 4299, "value</w>": 4300, "Victoria</w>": 4301, "coast": 4302, "shore</w>": 4303, "Human</w>": 4304, "alongside</w>": 4305, "Bruins</w>": 4306, "pic": 4307, "onto</w>": 4308, "San</w>": 4309, "begins</w>": 4310, "write</w>": 4311, "1986</w>": 4312, "Between</w>": 4313, "party</w>": 4314, "diagno": 4315, "declined</w>": 4316, "Alex": 4317, "test</w>": 4318, "bone</w>": 4319, "Egyptians</w>": 4320, "words</w>": 4321, "images</w>": 4322, "environ": 4323, "rule</w>": 4324, "wide": 4325, "onna</w>": 4326, "think</w>": 4327, "performances</w>": 4328, "34</w>": 4329, "standards</w>": 4330, "requi": 4331, "det": 4332, "attacked</w>": 4333, "nic": 4334, "historian</w>": 4335, "acad": 4336, "Lu": 4337, "coup</w>": 4338, "utch</w>": 4339, "Town</w>": 4340, "Minister</w>": 4341, "Night</w>": 4342, "eh": 4343, "explained</w>": 4344, "producers</w>": 4345, "tar</w>": 4346, "Day</w>": 4347, "Lad</w>": 4348, "want</w>": 4349, "chers</w>": 4350, "Ev": 4351, "ema</w>": 4352, "compu": 4353, "myel": 4354, "Herg\u00e9</w>": 4355, "tac": 4356, "perform</w>": 4357, "perial</w>": 4358, "victory</w>": 4359, "leader</w>": 4360, "ce": 4361, "tionary</w>": 4362, "needed</w>": 4363, "If</w>": 4364, "quality</w>": 4365, "X</w>": 4366, "extended</w>": 4367, "iling</w>": 4368, "Road</w>": 4369, "appearances</w>": 4370, "ses": 4371, "lock</w>": 4372, "54</w>": 4373, "collection</w>": 4374, "anti": 4375, "knowle": 4376, "icient</w>": 4377, "prepared</w>": 4378, "vely</w>": 4379, "invited</w>": 4380, "financial</w>": 4381, "designated</w>": 4382, "decades</w>": 4383, "wind": 4384, "parents</w>": 4385, "herself</w>": 4386, "Sir</w>": 4387, "tives</w>": 4388, "tale</w>": 4389, "prepar": 4390, "Sal": 4391, "Cec": 4392, "levels</w>": 4393, "habit": 4394, "smo": 4395, "ski</w>": 4396, "strugg": 4397, "clu": 4398, "extra</w>": 4399, "Tor": 4400, "inves": 4401, "investig": 4402, "Johnson</w>": 4403, "76</w>": 4404, "Lo": 4405, "observ": 4406, "contrast</w>": 4407, "stren": 4408, "streng": 4409, "cases</w>": 4410, "vocals</w>": 4411, "Not</w>": 4412, "break": 4413, "roles</w>": 4414, "movi": 4415, "je": 4416, "Kh": 4417, "gives</w>": 4418, "plays</w>": 4419, "appear</w>": 4420, "media</w>": 4421, "Ont": 4422, "Ontario</w>": 4423, "1993</w>": 4424, "eball</w>": 4425, "Hungarian</w>": 4426, "1914</w>": 4427, "combat</w>": 4428, "37</w>": 4429, "lations</w>": 4430, "places</w>": 4431, "beha": 4432, "behavi": 4433, "titude</w>": 4434, "practic": 4435, "sity</w>": 4436, "icro": 4437, "destroyers</w>": 4438, "assass": 4439, "transpor": 4440, "180": 4441, "brick</w>": 4442, "holiday</w>": 4443, "D\u00ed": 4444, "D\u00edaz</w>": 4445, "Dominican</w>": 4446, "solo</w>": 4447, "inva": 4448, "Vir": 4449, "WAS": 4450, "WASP</w>": 4451, "udd": 4452, "village</w>": 4453, "Monum": 4454, "New": 4455, "synagogue</w>": 4456, "Maria</w>": 4457, "gration</w>": 4458, "Bas": 4459, "Neolithic</w>": 4460, "compounds</w>": 4461, "wolf</w>": 4462, "Ernest</w>": 4463, "Kaim": 4464, "Kaiman": 4465, "Commandos</w>": 4466, "script</w>": 4467, "adapted</w>": 4468, "movement</w>": 4469, "inn": 4470, "Command</w>": 4471, "shortly</w>": 4472, "model": 4473, "incorpor": 4474, "arran": 4475, "featuring</w>": 4476, "enjo": 4477, "strated</w>": 4478, "thick</w>": 4479, "conflict</w>": 4480, "assu": 4481, "charge</w>": 4482, "Board</w>": 4483, "antry</w>": 4484, "don": 4485, "itable</w>": 4486, "func": 4487, "employ": 4488, "inside</w>": 4489, "door</w>": 4490, "middle</w>": 4491, "chur": 4492, "Boo": 4493, "Lord</w>": 4494, "girl</w>": 4495, "chapel</w>": 4496, "targe": 4497, "analysis</w>": 4498, "surface</w>": 4499, "reach</w>": 4500, "worst</w>": 4501, "personnel</w>": 4502, "fans</w>": 4503, "ason</w>": 4504, "numerous</w>": 4505, "approach": 4506, "hockey</w>": 4507, "hu": 4508, "Tran": 4509, "Pope</w>": 4510, "equi": 4511, "strat": 4512, "race</w>": 4513, "Sy": 4514, "legal</w>": 4515, "Ber": 4516, "41</w>": 4517, "actually</w>": 4518, "Port</w>": 4519, "squadron</w>": 4520, "pilots</w>": 4521, "appar": 4522, "shooting</w>": 4523, "dating</w>": 4524, "contemporary</w>": 4525, "unc": 4526, "1992</w>": 4527, "yn</w>": 4528, "Kar": 4529, "temples</w>": 4530, "tex": 4531, "independent</w>": 4532, "neigh": 4533, "temple</w>": 4534, "widespread</w>": 4535, "vince</w>": 4536, "believe</w>": 4537, "styles</w>": 4538, "encour": 4539, "certi": 4540, "transport</w>": 4541, "gli": 4542, "selling</w>": 4543, "recent</w>": 4544, "concent": 4545, "alleg": 4546, "submarine</w>": 4547, "Lewis</w>": 4548, "ald</w>": 4549, "Typ": 4550, "fashion</w>": 4551, "violence</w>": 4552, "Bern": 4553, "visit</w>": 4554, "treatment</w>": 4555, "Review</w>": 4556, "ancy</w>": 4557, "discovery</w>": 4558, "eton</w>": 4559, "learned</w>": 4560, "Office</w>": 4561, "Patrick</w>": 4562, "rating</w>": 4563, "flooding</w>": 4564, "Ul": 4565, "antu": 4566, "oundation</w>": 4567, "Ve": 4568, "Yeo": 4569, "Yeovil</w>": 4570, "Thai</w>": 4571, "Had": 4572, "Peters</w>": 4573, "herd</w>": 4574, "Japanese</w>": 4575, "defeat</w>": 4576, "look</w>": 4577, "plat": 4578, "cs</w>": 4579, "tun": 4580, "musical</w>": 4581, "Story</w>": 4582, "pra": 4583, "issues</w>": 4584, "improved</w>": 4585, "length</w>": 4586, "stopp": 4587, "real": 4588, "Both</w>": 4589, "Paci": 4590, "Pacific</w>": 4591, "passing</w>": 4592, "Thi": 4593, "simp": 4594, "wa": 4595, "manufac": 4596, "converted</w>": 4597, "complet": 4598, "completely</w>": 4599, "river</w>": 4600, "brary</w>": 4601, "guard</w>": 4602, "Sum": 4603, "pain": 4604, "thwest</w>": 4605, "meet</w>": 4606, "attended</w>": 4607, "1936</w>": 4608, "association</w>": 4609, "earliest</w>": 4610, "ries</w>": 4611, "elected</w>": 4612, "kin": 4613, "\u00a3</w>": 4614, "homes</w>": 4615, "division</w>": 4616, "1946</w>": 4617, "quali": 4618, "organized</w>": 4619, "dedicated</w>": 4620, "rows</w>": 4621, "genus</w>": 4622, "outer</w>": 4623, "pelago</w>": 4624, "antly</w>": 4625, "tis</w>": 4626, "sell</w>": 4627, "Boston</w>": 4628, "38</w>": 4629, "consist": 4630, "esc": 4631, "ras": 4632, "88</w>": 4633, "economy</w>": 4634, "Atlanta</w>": 4635, "attempts</w>": 4636, "monit": 4637, "ak</w>": 4638, "circu": 4639, "Under</w>": 4640, "hard</w>": 4641, "Lan": 4642, "Princ": 4643, "ging</w>": 4644, "Ga": 4645, "dom": 4646, "fast</w>": 4647, "teenth</w>": 4648, "Alexander</w>": 4649, "fighting</w>": 4650, "Max</w>": 4651, "Tur": 4652, "humans</w>": 4653, "argued</w>": 4654, "where": 4655, "mentioned</w>": 4656, "worship</w>": 4657, "kings</w>": 4658, "threat": 4659, "setting</w>": 4660, "fai": 4661, "Heaven</w>": 4662, "experim": 4663, "seri": 4664, "claim</w>": 4665, "experienced</w>": 4666, "ero": 4667, "elled</w>": 4668, "1913</w>": 4669, "hus": 4670, "v</w>": 4671, "stal": 4672, "Mint</w>": 4673, "Francis": 4674, "sit": 4675, "energy</w>": 4676, "declared</w>": 4677, "Court</w>": 4678, "Corps</w>": 4679, "pain</w>": 4680, "Leon": 4681, "stan</w>": 4682, "job</w>": 4683, "carved</w>": 4684, "oul": 4685, "harb": 4686, "Zagre": 4687, "Zagreb</w>": 4688, "FIT": 4689, "FITs</w>": 4690, "MVP</w>": 4691, "aw</w>": 4692, "Celtic</w>": 4693, "debuted</w>": 4694, "Stansfield</w>": 4695, "Rangers</w>": 4696, "Wan": 4697, "Wander": 4698, "Wanderers</w>": 4699, "Archaeology</w>": 4700, "Israel": 4701, "Twins</w>": 4702, "spaces</w>": 4703, "hemmem": 4704, "Gwend": 4705, "Gwendol": 4706, "Gwendolen</w>": 4707, "Kaimanawa</w>": 4708, "Nazaire</w>": 4709, "Campbel": 4710, "Campbeltown</w>": 4711, "Emp": 4712, "lia</w>": 4713, "Imperial</w>": 4714, "rying</w>": 4715, "multi": 4716, "episodes</w>": 4717, "difficul": 4718, "wise</w>": 4719, "fight</w>": 4720, "continues</w>": 4721, "lived</w>": 4722, "alle": 4723, "guitar</w>": 4724, "lyric": 4725, "lyrics</w>": 4726, "potential</w>": 4727, "aspects</w>": 4728, "problems</w>": 4729, "Project</w>": 4730, "purpose</w>": 4731, "Mac": 4732, "Anti": 4733, "distinct</w>": 4734, "starting</w>": 4735, "perman": 4736, "legis": 4737, "security</w>": 4738, "ham</w>": 4739, "instruc": 4740, "compri": 4741, "distric": 4742, "employed</w>": 4743, "eutenant</w>": 4744, "let</w>": 4745, "abandoned</w>": 4746, "devo": 4747, "mark</w>": 4748, "flow": 4749, "artist</w>": 4750, "Peter</w>": 4751, "alties</w>": 4752, "doing</w>": 4753, "shire</w>": 4754, "ut</w>": 4755, "1937</w>": 4756, "Gam": 4757, "popularity</w>": 4758, "Background</w>": 4759, "founded</w>": 4760, "pap": 4761, "rays</w>": 4762, "maxim": 4763, "jud": 4764, "eeded</w>": 4765, "elim": 4766, "CAA</w>": 4767, "commissioned</w>": 4768, "Four</w>": 4769, "entation</w>": 4770, "thous": 4771, "decor": 4772, "farm": 4773, "Morri": 4774, "800</w>": 4775, "commented</w>": 4776, "pressure</w>": 4777, "pul": 4778, "ssing</w>": 4779, "projects</w>": 4780, "diseas": 4781, "cancer</w>": 4782, "1984</w>": 4783, "initiative</w>": 4784, "Austro</w>": 4785, "religion</w>": 4786, "texts</w>": 4787, "importance</w>": 4788, "tili": 4789, "hair</w>": 4790, "onic</w>": 4791, "architecture</w>": 4792, "Industry</w>": 4793, "Cali": 4794, "Califor": 4795, "California</w>": 4796, "romes</w>": 4797, "gation</w>": 4798, "opposed</w>": 4799, "fungu": 4800, "fungus</w>": 4801, "yli": 4802, "Ram": 4803, "plot</w>": 4804, "scenes</w>": 4805, "loan</w>": 4806, "Order</w>": 4807, "Mitch": 4808, "Portu": 4809, "immi": 4810, "Virg": 4811, "gate</w>": 4812, "Archaeological</w>": 4813, "excavations</w>": 4814, "lasted</w>": 4815, "pagand": 4816, "paganda</w>": 4817, "bishop</w>": 4818, "usti": 4819, "Under": 4820, "inian</w>": 4821, "adul": 4822, "exit</w>": 4823, "ene": 4824, "audience</w>": 4825, "Veer": 4826, "Veeru</w>": 4827, "Maril": 4828, "Marilyn</w>": 4829, "Ruler</w>": 4830, "Hur": 4831, "Montag": 4832, "Command": 4833, "Commandments</w>": 4834, "zzi</w>": 4835, "Crusad": 4836, "Revol": 4837, "Each</w>": 4838, "kno": 4839, "grown</w>": 4840, "presence</w>": 4841, "keep</w>": 4842, "singer</w>": 4843, "web": 4844, "Ry": 4845, "refer": 4846, "ilitary</w>": 4847, "rig": 4848, "store</w>": 4849, "authority</w>": 4850, "determined</w>": 4851, "recently</w>": 4852, "surrender</w>": 4853, "stered</w>": 4854, "elly</w>": 4855, "engage</w>": 4856, "build</w>": 4857, "tric</w>": 4858, "Over</w>": 4859, "Art</w>": 4860, "Pit": 4861, "1985</w>": 4862, "daughter</w>": 4863, "youn": 4864, "here</w>": 4865, "recomm": 4866, "comes</w>": 4867, "institutions</w>": 4868, "mes</w>": 4869, "ardian</w>": 4870, "1929</w>": 4871, "Bea": 4872, "Win": 4873, "represents</w>": 4874, "tail</w>": 4875, "ark</w>": 4876, "Research</w>": 4877, "tery</w>": 4878, "management</w>": 4879, "ditionally</w>": 4880, "mom": 4881, "eni": 4882, "deal": 4883, "bility</w>": 4884, "nin": 4885, "strateg": 4886, "twi": 4887, "di</w>": 4888, "addre": 4889, "og</w>": 4890, "occupation</w>": 4891, "bow</w>": 4892, "16": 4893, "cing</w>": 4894, "pass</w>": 4895, "Miss</w>": 4896, "astic</w>": 4897, "ev</w>": 4898, "dent</w>": 4899, "bil": 4900, "share</w>": 4901, "hospital</w>": 4902, "enne": 4903, "milli": 4904, "istics</w>": 4905, "accept": 4906, "birth</w>": 4907, "distingui": 4908, "depicts</w>": 4909, "ideas</w>": 4910, "regarded</w>": 4911, "creator</w>": 4912, "cities</w>": 4913, "know</w>": 4914, "rare</w>": 4915, "shrine</w>": 4916, "practices</w>": 4917, "benef": 4918, "observed</w>": 4919, "ections</w>": 4920, "theory</w>": 4921, "aviation</w>": 4922, "facilities</w>": 4923, "severe</w>": 4924, "55</w>": 4925, "eld</w>": 4926, "viewers</w>": 4927, "Wing</w>": 4928, "industri": 4929, "Broad": 4930, "colum": 4931, "Paki": 4932, "broadcast</w>": 4933, "earth": 4934, "chamber</w>": 4935, "touri": 4936, "band": 4937, "Bur": 4938, "invasion</w>": 4939, "Operation</w>": 4940, "ock": 4941, "speaker</w>": 4942, "Grand</w>": 4943, "Belgi": 4944, "trop": 4945, "Daily</w>": 4946, "Gate</w>": 4947, "Israeli</w>": 4948, "Han</w>": 4949, "Oreg": 4950, "Oregon</w>": 4951, "Colonna</w>": 4952, "blin</w>": 4953, "edition</w>": 4954, "fran": 4955, "unique</w>": 4956, "dict": 4957, "Reg": 4958, "Cal": 4959, "Empire</w>": 4960, "ancient</w>": 4961, "jected</w>": 4962, "bass</w>": 4963, "ple": 4964, "moral</w>": 4965, "Flower</w>": 4966, "Building</w>": 4967, "Arth": 4968, "Arthur</w>": 4969, "Governor</w>": 4970, "news</w>": 4971, "emble</w>": 4972, "deemed</w>": 4973, "assemb": 4974, "your</w>": 4975, "except</w>": 4976, "cali": 4977, "orn</w>": 4978, "Confeder": 4979, "duties</w>": 4980, "marks</w>": 4981, "Jose": 4982, "Joseph</w>": 4983, "Wash": 4984, "Washington</w>": 4985, "purposes</w>": 4986, "Regi": 4987, "cards</w>": 4988, "Spr": 4989, "stained</w>": 4990, "1919</w>": 4991, "semi</w>": 4992, "churches</w>": 4993, "plant</w>": 4994, "Sus": 4995, "eye</w>": 4996, "Sun</w>": 4997, "world": 4998, "plain</w>": 4999, "less": 5000, "62</w>": 5001, "relatively</w>": 5002, "playoffs</w>": 5003, "free": 5004, "strea": 5005, "agent</w>": 5006, "losing</w>": 5007, "Pho": 5008, "stating</w>": 5009, "Upon</w>": 5010, "involving</w>": 5011, "48</w>": 5012, "ville</w>": 5013, "missing</w>": 5014, "commit": 5015, "mag": 5016, "appears</w>": 5017, "daily</w>": 5018, "Creek</w>": 5019, "toward</w>": 5020, "Gl": 5021, "Steph": 5022, "sons</w>": 5023, "connected</w>": 5024, "aggre": 5025, "broke</w>": 5026, "drama</w>": 5027, "science</w>": 5028, "roman": 5029, "student</w>": 5030, "dial": 5031, "Entertainment</w>": 5032, "Live</w>": 5033, "disease</w>": 5034, "worth</w>": 5035, "CAT</w>": 5036, "destroy</w>": 5037, "posing</w>": 5038, "focus</w>": 5039, "Greek</w>": 5040, "AD</w>": 5041, "Dem": 5042, "die</w>": 5043, "treated</w>": 5044, "erful</w>": 5045, "dynam": 5046, "increasingly</w>": 5047, "Mean": 5048, "Meanwhile</w>": 5049, "Mus": 5050, "Musli": 5051, "erry</w>": 5052, "med": 5053, "label</w>": 5054, "kind</w>": 5055, "micro": 5056, "aerodromes</w>": 5057, "medical</w>": 5058, "respect</w>": 5059, "prohib": 5060, "policy</w>": 5061, "opinion</w>": 5062, "Zr": 5063, "Zr\u00ed": 5064, "Zr\u00ednyi</w>": 5065, "fruit</w>": 5066, "Long": 5067, "pieces</w>": 5068, "chief</w>": 5069, "ica</w>": 5070, "holds</w>": 5071, "bert</w>": 5072, "Wri": 5073, "Dutch</w>": 5074, "prison": 5075, "1947</w>": 5076, "Jour": 5077, "itage</w>": 5078, "Bra": 5079, "var": 5080, "structures</w>": 5081, "Frank</w>": 5082, "oi": 5083, "Z</w>": 5084, "Nazi</w>": 5085, "ys": 5086, "reactor</w>": 5087, "Russia</w>": 5088, "Medway</w>": 5089, "Valley</w>": 5090, "stable</w>": 5091, "Company</w>": 5092, "homo": 5093, "computer</w>": 5094, "Castle</w>": 5095, "Theat": 5096, "Theatre</w>": 5097, "birds</w>": 5098, "Beyon": 5099, "Beyonc": 5100, "Beyonc\u00e9</w>": 5101, "archipelago</w>": 5102, "Tong</w>": 5103, "Stopp": 5104, "Stoppani</w>": 5105, "Pozz": 5106, "Pozzob": 5107, "Pozzobon": 5108, "Pozzobonelli</w>": 5109, "Fantu": 5110, "Fantuzzi</w>": 5111, "neutrino</w>": 5112, "Hospit": 5113, "lit</w>": 5114, "commonly</w>": 5115, "multiple</w>": 5116, "sales</w>": 5117, "expanded</w>": 5118, "missions</w>": 5119, "skills</w>": 5120, "greatly</w>": 5121, "shared</w>": 5122, "composed</w>": 5123, "foreign</w>": 5124, "ask</w>": 5125, "ror</w>": 5126, "journ": 5127, "details</w>": 5128, "artic": 5129, "Offic": 5130, "princip": 5131, "Arsenal</w>": 5132, "request</w>": 5133, "Fort</w>": 5134, "therefore</w>": 5135, "haps</w>": 5136, "Inf": 5137, "rapid": 5138, "rapidly</w>": 5139, "establishment</w>": 5140, "gun": 5141, "train</w>": 5142, "exhib": 5143, "Historic</w>": 5144, "ites</w>": 5145, "hood</w>": 5146, "Fai": 5147, "spring</w>": 5148, "disci": 5149, "Cecily</w>": 5150, "Wom": 5151, "regional</w>": 5152, "challeng": 5153, "leave</w>": 5154, "pattern</w>": 5155, "contains</w>": 5156, "sl": 5157, "vent": 5158, "closely</w>": 5159, "note</w>": 5160, "owner</w>": 5161, "Vice</w>": 5162, "ninth</w>": 5163, "Str": 5164, "restric": 5165, "56</w>": 5166, "commun": 5167, "fix": 5168, "wind</w>": 5169, "Carey</w>": 5170, "Chart</w>": 5171, "rhy": 5172, "wooden</w>": 5173, "network</w>": 5174, "wounded</w>": 5175, "150</w>": 5176, "mass</w>": 5177, "cin": 5178, "emerged</w>": 5179, "ming</w>": 5180, "Hart": 5181, "84</w>": 5182, "chemo": 5183, "chemotherapy</w>": 5184, "rement</w>": 5185, "agement</w>": 5186, "Allied</w>": 5187, "relationships</w>": 5188, "unknown</w>": 5189, "knew</w>": 5190, "lic</w>": 5191, "flood</w>": 5192, "trou": 5193, "Their</w>": 5194, "cannot</w>": 5195, "Inst": 5196, "Instead</w>": 5197, "stances</w>": 5198, "describes</w>": 5199, "usual</w>": 5200, "guid": 5201, "peak</w>": 5202, "sionally</w>": 5203, "vocal</w>": 5204, "Lar": 5205, "really</w>": 5206, "fety</w>": 5207, "resulting</w>": 5208, "categ": 5209, "Aircraft</w>": 5210, "stay</w>": 5211, "primarily</w>": 5212, "ration</w>": 5213, "compla": 5214, "destruction</w>": 5215, "lap": 5216, "tane": 5217, "xis</w>": 5218, "sulf": 5219, "Type</w>": 5220, "Francisco</w>": 5221, "cies</w>": 5222, "notable</w>": 5223, "bon</w>": 5224, "leaders</w>": 5225, "Lake</w>": 5226, "university</w>": 5227, "ows</w>": 5228, "believes</w>": 5229, "defended</w>": 5230, "union</w>": 5231, "Prot": 5232, "ody</w>": 5233, "ualties</w>": 5234, "1900</w>": 5235, "sailors</w>": 5236, "bound</w>": 5237, "missi": 5238, "archaeologists</w>": 5239, "Evans</w>": 5240, "Albu": 5241, "Jai</w>": 5242, "ogu": 5243, "Jim</w>": 5244, "Sultan</w>": 5245, "ML": 5246, "Style</w>": 5247, "Import": 5248, "Importance</w>": 5249, "ricket</w>": 5250, "Dublin</w>": 5251, "franchi": 5252, "franchise</w>": 5253, "Pers": 5254, "theless</w>": 5255, "concept</w>": 5256, "territory</w>": 5257, "mechan": 5258, "faced</w>": 5259, "divor": 5260, "website</w>": 5261, "versions</w>": 5262, "noting</w>": 5263, "Light</w>": 5264, "ums</w>": 5265, "Military</w>": 5266, "dest</w>": 5267, "rum": 5268, "deni": 5269, "dering</w>": 5270, "morning</w>": 5271, "Jackson</w>": 5272, "operated</w>": 5273, "inder</w>": 5274, "San": 5275, "acu": 5276, "eral</w>": 5277, "matter</w>": 5278, "Guardian</w>": 5279, "Beau": 5280, "Lou": 5281, "Louis</w>": 5282, "enge</w>": 5283, "disc</w>": 5284, "stand</w>": 5285, "1987</w>": 5286, "Des": 5287, "ry": 5288, "captain</w>": 5289, "Angeles</w>": 5290, "secon": 5291, "willing</w>": 5292, "sports</w>": 5293, "sets</w>": 5294, "CE</w>": 5295, "AA</w>": 5296, "anger</w>": 5297, "depar": 5298, "atic": 5299, "credited</w>": 5300, "stic": 5301, "centuri": 5302, "centuries</w>": 5303, "sics</w>": 5304, "performing</w>": 5305, "northeast</w>": 5306, "rural</w>": 5307, "Rail": 5308, "defense</w>": 5309, "86</w>": 5310, "block": 5311, "Stephen</w>": 5312, "deck</w>": 5313, "armor</w>": 5314, "valent</w>": 5315, "trials</w>": 5316, "waters</w>": 5317, "abo": 5318, "abled</w>": 5319, "bad": 5320, "deg": 5321, "degree</w>": 5322, "screen</w>": 5323, "rain</w>": 5324, "romantic</w>": 5325, "voice</w>": 5326, "chan</w>": 5327, "protection</w>": 5328, "eding</w>": 5329, "baseball</w>": 5330, "recover": 5331, "Croati": 5332, "advanced</w>": 5333, "turre": 5334, "battleships</w>": 5335, "characteristics</w>": 5336, "depicted</w>": 5337, "applied</w>": 5338, "powerful</w>": 5339, "Dynasty</w>": 5340, "ex</w>": 5341, "serted</w>": 5342, "debate</w>": 5343, "dism": 5344, "headed</w>": 5345, "blue</w>": 5346, "status</w>": 5347, "laid</w>": 5348, "ble": 5349, "arm</w>": 5350, "ulated</w>": 5351, "uled</w>": 5352, "cost</w>": 5353, "sever": 5354, "plement</w>": 5355, "impact</w>": 5356, "Airport</w>": 5357, "charges</w>": 5358, "cruiser</w>": 5359, "spores</w>": 5360, "Longacre</w>": 5361, "pal": 5362, "claims</w>": 5363, "kl": 5364, "Weekly</w>": 5365, "quarter</w>": 5366, "rie</w>": 5367, "replacement</w>": 5368, "sculpture</w>": 5369, "mee": 5370, "meeting</w>": 5371, "treaty</w>": 5372, "generation</w>": 5373, "lie</w>": 5374, "leads</w>": 5375, "everything</w>": 5376, "Spain</w>": 5377, "Prom": 5378, "1945</w>": 5379, "CO</w>": 5380, "120</w>": 5381, "rons</w>": 5382, "coastal</w>": 5383, "liament</w>": 5384, "comedi": 5385, "Press</w>": 5386, "ratings</w>": 5387, "Fame</w>": 5388, "Budd": 5389, "settlement</w>": 5390, "expl": 5391, "Bald</w>": 5392, "1982</w>": 5393, "urs</w>": 5394, "territories</w>": 5395, "Prime</w>": 5396, "Stones</w>": 5397, "genre</w>": 5398, "Maya</w>": 5399, "Exeter</w>": 5400, "\u2212</w>": 5401, "acute</w>": 5402, "wild</w>": 5403, "defence</w>": 5404, "Li</w>": 5405, "Row": 5406, "Rowson</w>": 5407, "aga</w>": 5408, "Revolution</w>": 5409, "Out": 5410, "distance</w>": 5411, "classes</w>": 5412, "accused</w>": 5413, "ster": 5414, "creating</w>": 5415, "grade</w>": 5416, "systems</w>": 5417, "fought</w>": 5418, "affected</w>": 5419, "returning</w>": 5420, "extensive</w>": 5421, "Terri": 5422, "proved</w>": 5423, "permanent</w>": 5424, "permitted</w>": 5425, "ession</w>": 5426, "citi": 5427, "citiz": 5428, "executive</w>": 5429, "direction</w>": 5430, "turing</w>": 5431, "chemical</w>": 5432, "iron</w>": 5433, "Labor": 5434, "Laboratory</w>": 5435, "Lieutenant</w>": 5436, "artill": 5437, "artillery</w>": 5438, "IV</w>": 5439, "scale</w>": 5440, "organiz": 5441, "displa": 5442, "Works</w>": 5443, "Arts</w>": 5444, "Dis": 5445, "depicting</w>": 5446, "Fairies</w>": 5447, "Simil": 5448, "Ele": 5449, "My</w>": 5450, "wn</w>": 5451, "Andrew</w>": 5452, "heart</w>": 5453, "77</w>": 5454, "1989</w>": 5455, "favorite</w>": 5456, "resc": 5457, "1926</w>": 5458, "Championship</w>": 5459, "nament</w>": 5460, "brown</w>": 5461, "aped</w>": 5462, "bott": 5463, "developing</w>": 5464, "Mark</w>": 5465, "injury</w>": 5466, "playoff</w>": 5467, "oud</w>": 5468, "net</w>": 5469, "Operations</w>": 5470, "organization</w>": 5471, "Shor": 5472, "Shortly</w>": 5473, "background</w>": 5474, "wick</w>": 5475, "plem": 5476, "twice</w>": 5477, "enz": 5478, "looking</w>": 5479, "seat</w>": 5480, "carry</w>": 5481, "fted</w>": 5482, "titled</w>": 5483, "stence</w>": 5484, "Sound</w>": 5485, "rhyth": 5486, "crow": 5487, "52</w>": 5488, "71</w>": 5489, "stem</w>": 5490, "57</w>": 5491, "aded</w>": 5492, "Austri": 5493, "Secretary</w>": 5494, "brothers</w>": 5495, "crews</w>": 5496, "turning</w>": 5497, "Khan</w>": 5498, "domes": 5499, "eget": 5500, "Treat": 5501, "ght": 5502, "sought</w>": 5503, "offensive</w>": 5504, "chec": 5505, "Erz": 5506, "Erzher": 5507, "Erzherz": 5508, "Erzherzog</w>": 5509, "tuals</w>": 5510, "Amu": 5511, "Amun</w>": 5512, "scholars</w>": 5513, "acted</w>": 5514, "reasons</w>": 5515, "whereas</w>": 5516, "instance</w>": 5517, "counter": 5518, "earth</w>": 5519, "causing</w>": 5520, "land": 5521, "rise</w>": 5522, "reign</w>": 5523, "recognized</w>": 5524, "bring</w>": 5525, "threatened</w>": 5526, "relief</w>": 5527, "oundtrack</w>": 5528, "fications</w>": 5529, "Aviation</w>": 5530, "recre": 5531, "landing</w>": 5532, "1972</w>": 5533, "Hal": 5534, "urb": 5535, "Survey</w>": 5536, "fuel</w>": 5537, "oughly</w>": 5538, "growing</w>": 5539, "vali": 5540, "wich</w>": 5541, "firing</w>": 5542, "ege</w>": 5543, "destroyer</w>": 5544, "submarines</w>": 5545, "Don": 5546, "trees</w>": 5547, "Southern</w>": 5548, "eleg": 5549, "Commission</w>": 5550, "dates</w>": 5551, "reagents</w>": 5552, "publications</w>": 5553, "electr": 5554, "omer": 5555, "academic</w>": 5556, "Goat</w>": 5557, "scholar</w>": 5558, "ians</w>": 5559, "Meg": 5560, "Adam</w>": 5561, "awards</w>": 5562, "Clin": 5563, "Clinton</w>": 5564, "someone</w>": 5565, "master</w>": 5566, "actors</w>": 5567, "anta</w>": 5568, "sculptures</w>": 5569, "tall</w>": 5570, "altar</w>": 5571, "musicians</w>": 5572, "compar": 5573, "arrival</w>": 5574, "limate</w>": 5575, "ergy</w>": 5576, "anna</w>": 5577, "tests</w>": 5578, "aliths</w>": 5579, "tombs</w>": 5580, "tropical</w>": 5581, "dams</w>": 5582, "Ca": 5583, "iland</w>": 5584, "Timbal": 5585, "Timbaland</w>": 5586, "allo": 5587, "Y</w>": 5588, "Master</w>": 5589, "fragili": 5590, "fragilis</w>": 5591, "Gea": 5592, "bie</w>": 5593, "Haddock</w>": 5594, "fusion</w>": 5595, "predec": 5596, "runs</w>": 5597, "portion</w>": 5598, "desc": 5599, "fellow</w>": 5600, "pose</w>": 5601, "goes</w>": 5602, "problem</w>": 5603, "color</w>": 5604, "responsib": 5605, "criticized</w>": 5606, "seums</w>": 5607, "Dou": 5608, "arsenal</w>": 5609, "Being</w>": 5610, "session</w>": 5611, "winter</w>": 5612, "stores</w>": 5613, "denied</w>": 5614, "nance</w>": 5615, "efforts</w>": 5616, "supply</w>": 5617, "district</w>": 5618, "gath": 5619, "account</w>": 5620, "knowledge</w>": 5621, "purchased</w>": 5622, "remainder</w>": 5623, "pay</w>": 5624, "enter</w>": 5625, "ounder</w>": 5626, "Chief</w>": 5627, "evacu": 5628, "demoli": 5629, "bill</w>": 5630, "Book</w>": 5631, "tum": 5632, "rey</w>": 5633, "belong": 5634, "Summer</w>": 5635, "doub": 5636, "Corn": 5637, "1954</w>": 5638, "1961</w>": 5639, "restor": 5640, "tried</w>": 5641, "Edward</w>": 5642, "res": 5643, "1938</w>": 5644, "suggests</w>": 5645, "bury</w>": 5646, "memorial</w>": 5647, "Vill": 5648, "beat</w>": 5649, "1952</w>": 5650, "skin</w>": 5651, "description</w>": 5652, "elev": 5653, "shape</w>": 5654, "strate</w>": 5655, "consists</w>": 5656, "aten</w>": 5657, "straight</w>": 5658, "eff</w>": 5659, "seconds</w>": 5660, "score</w>": 5661, "Steve</w>": 5662, "More</w>": 5663, "trying</w>": 5664, "letter</w>": 5665, "wr": 5666, "anch": 5667, "Mike</w>": 5668, "Sil": 5669, "offers</w>": 5670, "archit": 5671, "centre</w>": 5672, "preserved</w>": 5673, "gift</w>": 5674, "Today</w>": 5675, "reception</w>": 5676, "Critical</w>": 5677, "street</w>": 5678, "fun</w>": 5679, "remix</w>": 5680, "Ja": 5681, "traff": 5682, "traffic</w>": 5683, "supporting</w>": 5684, "kg</w>": 5685, "tie</w>": 5686, "badly</w>": 5687, "currently</w>": 5688, "escape</w>": 5689, "hosted</w>": 5690, "Hollywood</w>": 5691, "temp": 5692, "Sin": 5693, "Singh</w>": 5694, "Sat": 5695, "Satur": 5696, "Saturday</w>": 5697, "Party</w>": 5698, "Thakur</w>": 5699, "sian</w>": 5700, "chose</w>": 5701, "Bill</w>": 5702, "college</w>": 5703, "Team</w>": 5704, "89</w>": 5705, "championship</w>": 5706, "stood</w>": 5707, "Ferdin": 5708, "Ferdinand</w>": 5709, "abs": 5710, "rar": 5711, "Ital": 5712, "Italy</w>": 5713, "iser</w>": 5714, "Ra</w>": 5715, "goddess</w>": 5716, "cult</w>": 5717, "say</w>": 5718, "divisions</w>": 5719, "civili": 5720, "feel</w>": 5721, "differenti": 5722, "province</w>": 5723, "buried</w>": 5724, "basic</w>": 5725, "yel": 5726, "examples</w>": 5727, "opportunities</w>": 5728, "question</w>": 5729, "Muslim</w>": 5730, "didn</w>": 5731, "bit</w>": 5732, "certified</w>": 5733, "nish</w>": 5734, "patro": 5735, "iness</w>": 5736, "airport</w>": 5737, "Guide</w>": 5738, "severely</w>": 5739, "decline</w>": 5740, "ky</w>": 5741, "assassination</w>": 5742, "entirely</w>": 5743, "Ver": 5744, "carbon": 5745, "bru": 5746, "Congre": 5747, "denomin": 5748, "successor</w>": 5749, "dly</w>": 5750, "Bow": 5751, "bran": 5752, "kov": 5753, "onium</w>": 5754, "sulfi": 5755, "election</w>": 5756, "ises</w>": 5757, "Zap": 5758, "Zapata</w>": 5759, "Hu": 5760, "cab": 5761, "sexu": 5762, "Dani": 5763, "Daniel</w>": 5764, "Ant": 5765, "actor</w>": 5766, "We": 5767, "escort</w>": 5768, "Portugu": 5769, "Portuguese</w>": 5770, "Broadway</w>": 5771, "pregnancy</w>": 5772, "lli": 5773, "Journal</w>": 5774, "hill</w>": 5775, "dynasty</w>": 5776, "islands</w>": 5777, "attend": 5778, "holding</w>": 5779, "Monument</w>": 5780, "ques</w>": 5781, "metrical</w>": 5782, "photograph": 5783, "infall</w>": 5784, "surviv": 5785, "tenure</w>": 5786, "usz</w>": 5787, "teachers</w>": 5788, "Warsaw</w>": 5789, "\u0142aw</w>": 5790, "Classic</w>": 5791, "TOT</w>": 5792, "Sb": 5793, "Wel": 5794, "objec": 5795, "Uyghurs</w>": 5796, "Wang</w>": 5797, "zomb": 5798, "zombies</w>": 5799, "Crab</w>": 5800, "Pag": 5801, "Pagoda</w>": 5802, "gam": 5803, "secret</w>": 5804, "carrying</w>": 5805, "Due</w>": 5806, "comic</w>": 5807, "gradually</w>": 5808, "attacks</w>": 5809, "temporary</w>": 5810, "changing</w>": 5811, "shes</w>": 5812, "exist</w>": 5813, "kept</w>": 5814, "chance</w>": 5815, "Now</w>": 5816, "revolu": 5817, "designs</w>": 5818, "heard</w>": 5819, "sized</w>": 5820, "alists</w>": 5821, "dic</w>": 5822, "representing</w>": 5823, "sequence</w>": 5824, "anks</w>": 5825, "volume</w>": 5826, "thetic</w>": 5827, "Orig": 5828, "bud": 5829, "budget</w>": 5830, "rein": 5831, "gency</w>": 5832, "assumed</w>": 5833, "250</w>": 5834, "53</w>": 5835, "caliber</w>": 5836, "alion</w>": 5837, "uable</w>": 5838, "else</w>": 5839, "neither</w>": 5840, "inity</w>": 5841, "Freder": 5842, "renamed</w>": 5843, "condition</w>": 5844, "1911</w>": 5845, "shell</w>": 5846, "Dor": 5847, "66</w>": 5848, "Victorian</w>": 5849, "yard</w>": 5850, "studied</w>": 5851, "technical</w>": 5852, "choice</w>": 5853, "fon": 5854, "panel</w>": 5855, "Gambia</w>": 5856, "Women</w>": 5857, "worldwide</w>": 5858, "distribution</w>": 5859, "UC": 5860, "refers</w>": 5861, "cr": 5862, "thin</w>": 5863, "conservation</w>": 5864, "ping</w>": 5865, "Montre": 5866, "Montreal</w>": 5867, "goal": 5868, "Tro": 5869, "streak</w>": 5870, "percent": 5871, "suffering</w>": 5872, "host</w>": 5873, "representative</w>": 5874, "combination</w>": 5875, "Player</w>": 5876, "confir": 5877, "sun</w>": 5878, "sit</w>": 5879, "Third</w>": 5880, "1889</w>": 5881, "ophi": 5882, "strength</w>": 5883, "inspir": 5884, "au</w>": 5885, "deplo": 5886, "step": 5887, "connec": 5888, "join</w>": 5889, "contribu": 5890, "significantly</w>": 5891, "aboard</w>": 5892, "dney</w>": 5893, "possibly</w>": 5894, "ester</w>": 5895, "ensemble</w>": 5896, "languages</w>": 5897, "BN</w>": 5898, "asure</w>": 5899, "2016</w>": 5900, "Sab": 5901, "needs</w>": 5902, "concerned</w>": 5903, "retirement</w>": 5904, "SMS</w>": 5905, "terran": 5906, "terranean</w>": 5907, "sisters</w>": 5908, "turrets</w>": 5909, "millime": 5910, "thousands</w>": 5911, "strongly</w>": 5912, "step</w>": 5913, "ordin": 5914, "belief</w>": 5915, "bey": 5916, "beyond</w>": 5917, "argues</w>": 5918, "hosti": 5919, "powers</w>": 5920, "murder</w>": 5921, "essel</w>": 5922, "deep": 5923, "mies</w>": 5924, "agree</w>": 5925, "benefit</w>": 5926, "teacher</w>": 5927, "hund": 5928, "hundred</w>": 5929, "Blood</w>": 5930, "peaked</w>": 5931, "Cross</w>": 5932, "sector</w>": 5933, "increasing</w>": 5934, "Bus": 5935, "esses</w>": 5936, "liner</w>": 5937, "powered</w>": 5938, "operate</w>": 5939, "grass</w>": 5940, "satis": 5941, "short": 5942, "collap": 5943, "von</w>": 5944, "spore</w>": 5945, "ium</w>": 5946, "branch</w>": 5947, "Commit": 5948, "Committee</w>": 5949, "perfect</w>": 5950, "anything</w>": 5951, "applic": 5952, "typical</w>": 5953, "Cab": 5954, "writes</w>": 5955, "senior</w>": 5956, "Nations</w>": 5957, "Eleph": 5958, "arre": 5959, "accom": 5960, "Defence</w>": 5961, "Glo": 5962, "nominated</w>": 5963, "ceremony</w>": 5964, "enni": 5965, "Also</w>": 5966, "Hot</w>": 5967, "Buddhi": 5968, "Buddhist</w>": 5969, "ES": 5970, "Dest": 5971, "bre": 5972, "West": 5973, "accompli": 5974, "funding</w>": 5975, "justi": 5976, "stop</w>": 5977, "constitu": 5978, "61</w>": 5979, "Lab": 5980, "fare</w>": 5981, "meg": 5982, "ay": 5983, "Watson</w>": 5984, "Bridge</w>": 5985, "Albums</w>": 5986, "Hurricane</w>": 5987, "ppy</w>": 5988, "Ao": 5989, "AoT</w>": 5990, "chair</w>": 5991, "detec": 5992, "frigates</w>": 5993, "Remi": 5994, "Remix</w>": 5995, "Swedi": 5996, "Swedish</w>": 5997, "Leonard</w>": 5998, "eus</w>": 5999, "Geastru": 6000, "Geastrum</w>": 6001, "ERA</w>": 6002, "inich</w>": 6003, "leukemic</w>": 6004, "prog": 6005, "progno": 6006, "Huron</w>": 6007, "Palestinian</w>": 6008, "Feelings</w>": 6009, "Claws</w>": 6010, "xd</w>": 6011, "nights</w>": 6012, "Monica</w>": 6013, "Gael": 6014, "Media</w>": 6015, "follows</w>": 6016, "hi</w>": 6017, "speaking</w>": 6018, "get": 6019, "getting</w>": 6020, "grant</w>": 6021, "target</w>": 6022, "vertheless</w>": 6023, "consisting</w>": 6024, "protect</w>": 6025, "Devel": 6026, "Develop": 6027, "Development</w>": 6028, "vements</w>": 6029, "essential</w>": 6030, "instruments</w>": 6031, "singles</w>": 6032, "load</w>": 6033, "enjoyed</w>": 6034, "enter": 6035, "remo": 6036, "citing</w>": 6037, "headquarters</w>": 6038, "91</w>": 6039, "specimen</w>": 6040, "1861</w>": 6041, "responded</w>": 6042, "arrison</w>": 6043, "timate</w>": 6044, "governor</w>": 6045, "tia</w>": 6046, "agreement</w>": 6047, "cal</w>": 6048, "sufficient</w>": 6049, "scope</w>": 6050, "box": 6051, "130</w>": 6052, "ancing</w>": 6053, "brief": 6054, "briefly</w>": 6055, "stationed</w>": 6056, "organizations</w>": 6057, "Though</w>": 6058, "gest</w>": 6059, "Tu": 6060, "house": 6061, "receiving</w>": 6062, "Hospital</w>": 6063, "Books</w>": 6064, "tells</w>": 6065, "46</w>": 6066, "ram": 6067, "recogn": 6068, "maskra": 6069, "diam": 6070, "shaped</w>": 6071, "ish</w>": 6072, "cau": 6073, "bottom</w>": 6074, "oration</w>": 6075, "broad</w>": 6076, "spir": 6077, "ender</w>": 6078, "spaced</w>": 6079, "pref": 6080, "maximum</w>": 6081, "capture</w>": 6082, "intensi": 6083, "factors</w>": 6084, "missed</w>": 6085, "pick</w>": 6086, "finish</w>": 6087, "51</w>": 6088, "winner</w>": 6089, "starts</w>": 6090, "happy</w>": 6091, "64</w>": 6092, "penalty</w>": 6093, "depth</w>": 6094, "82</w>": 6095, "ssive</w>": 6096, "committee</w>": 6097, "sequent</w>": 6098, "border</w>": 6099, "towers</w>": 6100, "height</w>": 6101, "Way</w>": 6102, "Sing": 6103, "poor": 6104, "85</w>": 6105, "mile</w>": 6106, "travel</w>": 6107, "rail": 6108, "Sav": 6109, "engines</w>": 6110, "tally</w>": 6111, "protected</w>": 6112, "What</w>": 6113, "flag": 6114, "engineers</w>": 6115, "easi": 6116, "atives</w>": 6117, "model</w>": 6118, "box</w>": 6119, "Actress</w>": 6120, "movie</w>": 6121, "Mal": 6122, "domestic</w>": 6123, "starred</w>": 6124, "News</w>": 6125, "bin</w>": 6126, "bai</w>": 6127, "horse</w>": 6128, "income</w>": 6129, "1964</w>": 6130, "tilla</w>": 6131, "sunk</w>": 6132, "armament</w>": 6133, "rarely</w>": 6134, "outbreak</w>": 6135, "signal</w>": 6136, "assault</w>": 6137, "rituals</w>": 6138, "asks</w>": 6139, "objects</w>": 6140, "signs</w>": 6141, "maintained</w>": 6142, "communities</w>": 6143, "drin": 6144, "drawing</w>": 6145, "dynamic</w>": 6146, "periods</w>": 6147, "tol": 6148, "extreme</w>": 6149, "tend</w>": 6150, "Even</w>": 6151, "reaching</w>": 6152, "oph": 6153, "stom": 6154, "atters</w>": 6155, "Man</w>": 6156, "fly</w>": 6157, "accounts</w>": 6158, "Channel</w>": 6159, "requires</w>": 6160, "effective</w>": 6161, "weather</w>": 6162, "absence</w>": 6163, "Brist": 6164, "Bristol</w>": 6165, "Treaty</w>": 6166, "taneously</w>": 6167, "carbonaria</w>": 6168, "decade</w>": 6169, "scop": 6170, "nothing</w>": 6171, "difference</w>": 6172, "ee</w>": 6173, "facing</w>": 6174, "Op": 6175, "closer</w>": 6176, "display</w>": 6177, "survived</w>": 6178, "ylide</w>": 6179, "possibility</w>": 6180, "kill": 6181, "thirty</w>": 6182, "Throughout</w>": 6183, "intelligence</w>": 6184, "promotion</w>": 6185, "reference</w>": 6186, "filmed</w>": 6187, "Darwin</w>": 6188, "fighters</w>": 6189, "Tenn": 6190, "Tennant</w>": 6191, "expedition</w>": 6192, "quadrons</w>": 6193, "exposed</w>": 6194, "Virgini": 6195, "Virginia</w>": 6196, "Series</w>": 6197, "Pakistan</w>": 6198, "seems</w>": 6199, "oods</w>": 6200, "q</w>": 6201, "architectural</w>": 6202, "explains</w>": 6203, "tled</w>": 6204, "considers</w>": 6205, "contributed</w>": 6206, "machine</w>": 6207, "Radi": 6208, "Radio</w>": 6209, "racy</w>": 6210, "techniques</w>": 6211, "Independ": 6212, "propaganda</w>": 6213, "rainfall</w>": 6214, "minal</w>": 6215, "earing</w>": 6216, "alised</w>": 6217, "evin</w>": 6218, "defensive</w>": 6219, "Bob": 6220, "Magic</w>": 6221, "1975</w>": 6222, "Morrison</w>": 6223, "relative</w>": 6224, "Stu": 6225, "August": 6226, "Andy</w>": 6227, "Ulster</w>": 6228, "harm": 6229, "Studies</w>": 6230, "Thailand</w>": 6231, "Giants</w>": 6232, "Dr</w>": 6233, "Good</w>": 6234, "Field</w>": 6235, "vin</w>": 6236, "gle": 6237, "Adams</w>": 6238, "bandman</w>": 6239, "fox</w>": 6240, "gby</w>": 6241, "Manual</w>": 6242, "Wu</w>": 6243, "Soir</w>": 6244, "Crusader</w>": 6245, "castles</w>": 6246, "Bree": 6247, "Breese</w>": 6248, "granted</w>": 6249, "enders</w>": 6250, "nations</w>": 6251, "rant</w>": 6252, "memory</w>": 6253, "engine</w>": 6254, "rejected</w>": 6255, "chestra</w>": 6256, "visu": 6257, "Reception</w>": 6258, "develop</w>": 6259, "adaptation</w>": 6260, "museums</w>": 6261, "Dougl": 6262, "Douglas</w>": 6263, "civilian</w>": 6264, "promp": 6265, "passage</w>": 6266, "substan": 6267, "69</w>": 6268, "kets</w>": 6269, "Infantry</w>": 6270, "compan": 6271, "companies</w>": 6272, "aid</w>": 6273, "obtained</w>": 6274, "suitable</w>": 6275, "employment</w>": 6276, "bul": 6277, "Frederick</w>": 6278, "nov": 6279, "rear</w>": 6280, "1917</w>": 6281, "laces</w>": 6282, "honor</w>": 6283, "Mary</w>": 6284, "ile</w>": 6285, "dev": 6286, "Come</w>": 6287, "amat": 6288, "exer": 6289, "releas": 6290, "specimens</w>": 6291, "sacred</w>": 6292, "acquired</w>": 6293, "flat</w>": 6294, "spons": 6295, "1915</w>": 6296, "agency</w>": 6297, "now": 6298, "produces</w>": 6299, "Mem": 6300, "Treas": 6301, "organised</w>": 6302, "opportunity</w>": 6303, "ray</w>": 6304, "not": 6305, "toral</w>": 6306, "producing</w>": 6307, "onomy</w>": 6308, "resear": 6309, "rial</w>": 6310, "Descri": 6311, "Que": 6312, "sustained</w>": 6313, "threat</w>": 6314, "operates</w>": 6315, "exchange</w>": 6316, "Additionally</w>": 6317, "Blu": 6318, "slow</w>": 6319, "permission</w>": 6320, "eso": 6321, "Phoeni": 6322, "Phoenix</w>": 6323, "Stanley</w>": 6324, "Sup": 6325, "bell</w>": 6326, "posted</w>": 6327, "regu": 6328, "expansion</w>": 6329, "ectively</w>": 6330, "worn</w>": 6331, "big</w>": 6332, "Ob": 6333, "Paris</w>": 6334, "communic": 6335, "running</w>": 6336, "hall</w>": 6337, "ship": 6338, "Joe</w>": 6339, "accept</w>": 6340, "aware</w>": 6341, "differences</w>": 6342, "High": 6343, "culated</w>": 6344, "Bank</w>": 6345, "knots</w>": 6346, "arked</w>": 6347, "coal</w>": 6348, "armored</w>": 6349, "laws</w>": 6350, "recru": 6351, "psy": 6352, "eth": 6353, "duo</w>": 6354, "theatre</w>": 6355, "opposi": 6356, "Tig": 6357, "Holy</w>": 6358, "separated</w>": 6359, "attracted</w>": 6360, "rity</w>": 6361, "brief</w>": 6362, "marrow</w>": 6363, "Mediterranean</w>": 6364, "fitted</w>": 6365, "navy</w>": 6366, "tings</w>": 6367, "hier": 6368, "Horus</w>": 6369, "owns</w>": 6370, "regions</w>": 6371, "Through</w>": 6372, "Moder": 6373, "Modern</w>": 6374, "watch</w>": 6375, "agu": 6376, "cle</w>": 6377, "circum": 6378, "circumstances</w>": 6379, "frequently</w>": 6380, "lis</w>": 6381, "ung</w>": 6382, "allows</w>": 6383, "counter</w>": 6384, "Cer": 6385, "guidance</w>": 6386, "disa": 6387, "faith</w>": 6388, "Recording</w>": 6389, "Rol": 6390, "collected</w>": 6391, "Del</w>": 6392, "xe</w>": 6393, "wants</w>": 6394, "licen": 6395, "safety</w>": 6396, "flights</w>": 6397, "rome</w>": 6398, "noise</w>": 6399, "lane</w>": 6400, "trained</w>": 6401, "na</w>": 6402, "parties</w>": 6403, "competi": 6404, "acceptable</w>": 6405, "roughly</w>": 6406, "cup</w>": 6407, "rich</w>": 6408, "bear": 6409, "tree</w>": 6410, "Ham": 6411, "pot": 6412, "secretary</w>": 6413, "technique</w>": 6414, "agricultural</w>": 6415, "folk</w>": 6416, "Once</w>": 6417, "oxide</w>": 6418, "arsen": 6419, "gen</w>": 6420, "methods</w>": 6421, "derived</w>": 6422, "elections</w>": 6423, "blow": 6424, "minister</w>": 6425, "ashed</w>": 6426, "opponent</w>": 6427, "absol": 6428, "documentary</w>": 6429, "sexuality</w>": 6430, "Mol": 6431, "uma</w>": 6432, "essa</w>": 6433, "athan</w>": 6434, "eath</w>": 6435, "1931</w>": 6436, "shipping</w>": 6437, "Low": 6438, "eval</w>": 6439, "does": 6440, "doesn</w>": 6441, "CO": 6442, "temperature</w>": 6443, "68</w>": 6444, "harbour</w>": 6445, "begun</w>": 6446, "containing</w>": 6447, "symmetrical</w>": 6448, "houses</w>": 6449, "survivors</w>": 6450, "Civi": 6451, "neighb": 6452, "athle": 6453, "Dream</w>": 6454, "Boys</w>": 6455, "medal</w>": 6456, "clearly</w>": 6457, "Poles</w>": 6458, "pro</w>": 6459, "zy</w>": 6460, "politics</w>": 6461, "Men</w>": 6462, "casualties</w>": 6463, "Barrow</w>": 6464, "variation</w>": 6465, "timber</w>": 6466, "tissu": 6467, "freeway</w>": 6468, "RI": 6469, "Corpor": 6470, "Corporation</w>": 6471, "southeast</w>": 6472, "beach</w>": 6473, "Sippy</w>": 6474, "Cambridge</w>": 6475, "pati": 6476, "DS</w>": 6477, "Festival</w>": 6478, "gas</w>": 6479, "Aden</w>": 6480, "Alam": 6481, "Tripoli": 6482, "Tripoli</w>": 6483, "mainland</w>": 6484, "Beyond</w>": 6485, "bra": 6486, "IS": 6487, "ISBN</w>": 6488, "Catholics</w>": 6489, "Dwi": 6490, "Dwight</w>": 6491, "Palen": 6492, "Palenque</w>": 6493, "Lamb": 6494, "Lambton</w>": 6495, "Energy</w>": 6496, "berg</w>": 6497, "acon</w>": 6498, "Prism</w>": 6499, "Bore": 6500, "Boreas</w>": 6501, "pagoda</w>": 6502, "MLs</w>": 6503, "Charac": 6504, "option</w>": 6505, "gained</w>": 6506, "method</w>": 6507, "emies</w>": 6508, "partly</w>": 6509, "formal</w>": 6510, "wrec": 6511, "incorporated</w>": 6512, "arranged</w>": 6513, "capac": 6514, "capacity</w>": 6515, "transfer</w>": 6516, "data</w>": 6517, "article</w>": 6518, "eling</w>": 6519, "VD</w>": 6520, "Nat": 6521, "preme</w>": 6522, "acres</w>": 6523, "Lee</w>": 6524, "ammuni": 6525, "ammunition</w>": 6526, "dispat": 6527, "Loc": 6528, "recalled</w>": 6529, "citizens</w>": 6530, "safe</w>": 6531, "battery</w>": 6532, "sket": 6533, "Regim": 6534, "spirit</w>": 6535, "Dun": 6536, "Green</w>": 6537, "enlisted</w>": 6538, "acking</w>": 6539, "dominant</w>": 6540, "Ste": 6541, "Prior</w>": 6542, "park</w>": 6543, "soci": 6544, "facts</w>": 6545, "gone</w>": 6546, "Chil": 6547, "correspon": 6548, "1923</w>": 6549, "collaboration</w>": 6550, "thum": 6551, "publish": 6552, "1925</w>": 6553, "indicated</w>": 6554, "perhaps</w>": 6555, "1948</w>": 6556, "Out</w>": 6557, "1927</w>": 6558, "1957</w>": 6559, "recognised</w>": 6560, "foot": 6561, "females</w>": 6562, "genetic</w>": 6563, "ners</w>": 6564, "sli": 6565, "Dra": 6566, "controversi": 6567, "controversial</w>": 6568, "Wis": 6569, "ias</w>": 6570, "Trophy</w>": 6571, "Jason</w>": 6572, "ake</w>": 6573, "percentage</w>": 6574, "attributed</w>": 6575, "anded</w>": 6576, "blo": 6577, "stopped</w>": 6578, "Toronto</w>": 6579, "unlike</w>": 6580, "inging</w>": 6581, "kill</w>": 6582, "statis": 6583, "statistics</w>": 6584, "joining</w>": 6585, "XIII</w>": 6586, "flan": 6587, "diameter</w>": 6588, "Four": 6589, "fixed</w>": 6590, "existence</w>": 6591, "92</w>": 6592, "ads</w>": 6593, "Georgi": 6594, "Scotland</w>": 6595, "700</w>": 6596, "steam</w>": 6597, "passeng": 6598, "equivalent</w>": 6599, "weight</w>": 6600, "lea": 6601, "resi": 6602, "advance</w>": 6603, "sailed</w>": 6604, "kan</w>": 6605, "grand": 6606, "medium</w>": 6607, "neg": 6608, "dialogue</w>": 6609, "sati": 6610, "starring</w>": 6611, "Bach": 6612, "Mum": 6613, "Mumbai</w>": 6614, "Light": 6615, "Lightning</w>": 6616, "assistant</w>": 6617, "versities</w>": 6618, "arship</w>": 6619, "legi": 6620, "minim": 6621, "appearing</w>": 6622, "looked</w>": 6623, "ac</w>": 6624, "contact</w>": 6625, "Jr</w>": 6626, "\u00e1n</w>": 6627, "1910</w>": 6628, "surrounded</w>": 6629, "batteries</w>": 6630, "core</w>": 6631, "maat</w>": 6632, "ara": 6633, "Isis</w>": 6634, "capable</w>": 6635, "distinguished</w>": 6636, "animal</w>": 6637, "reading</w>": 6638, "death": 6639, "bound": 6640, "suggest</w>": 6641, "maintain</w>": 6642, "renew": 6643, "existed</w>": 6644, "false</w>": 6645, "ord</w>": 6646, "titles</w>": 6647, "rose</w>": 6648, "vessel</w>": 6649, "dismis": 6650, "materi": 6651, "use": 6652, "unusual</w>": 6653, "puni": 6654, "rebel": 6655, "tempo</w>": 6656, "biography</w>": 6657, "Nether": 6658, "Netherlands</w>": 6659, "surve": 6660, "airfields</w>": 6661, "Pip": 6662, "Piper</w>": 6663, "Cran": 6664, "zes</w>": 6665, "fically</w>": 6666, "stalk</w>": 6667, "reduc": 6668, "institution</w>": 6669, "bad</w>": 6670, "edly</w>": 6671, "Ap": 6672, "candi": 6673, "candidate</w>": 6674, "voted</w>": 6675, "Syn": 6676, "clas": 6677, "rival</w>": 6678, "Oro": 6679, "Oroz": 6680, "Orozco</w>": 6681, "math</w>": 6682, "Prize</w>": 6683, "storylines</w>": 6684, "narra": 6685, "narrative</w>": 6686, "finds</w>": 6687, "sle": 6688, "dign": 6689, "behaviour</w>": 6690, "Writing</w>": 6691, "1979</w>": 6692, "nickn": 6693, "industrial</w>": 6694, "regularly</w>": 6695, "rai": 6696, "Baby</w>": 6697, "skey</w>": 6698, "Emmy</w>": 6699, "watching</w>": 6700, "ementary</w>": 6701, "Comedy</w>": 6702, "Martin</w>": 6703, "gade</w>": 6704, "achiev": 6705, "lob": 6706, "mean</w>": 6707, "Elephanta</w>": 6708, "UN": 6709, "considerable</w>": 6710, "fresh</w>": 6711, "Ocean</w>": 6712, "soundtrack</w>": 6713, "Top</w>": 6714, "organ</w>": 6715, "finishing</w>": 6716, "archbishop</w>": 6717, "basin</w>": 6718, "proper</w>": 6719, "protests</w>": 6720, "Kevin</w>": 6721, "Wiz": 6722, "Wizards</w>": 6723, "divorce</w>": 6724, "authors</w>": 6725, "Brun": 6726, "adults</w>": 6727, "Angl": 6728, "Anglo</w>": 6729, "Gil": 6730, "hip</w>": 6731, "aco": 6732, "cinema</w>": 6733, "onist</w>": 6734, "dium</w>": 6735, "Thaksin</w>": 6736, "urg": 6737, "R\u00e9": 6738, "unte": 6739, "oured</w>": 6740, "campu": 6741, "campus</w>": 6742, "settlements</w>": 6743, "\u00d7</w>": 6744, "virtu": 6745, "So</w>": 6746, "Protest": 6747, "Protestant</w>": 6748, "teaches</w>": 6749, "archery</w>": 6750, "sitcom</w>": 6751, "Bg</w>": 6752, "Knights</w>": 6753, "Gaga</w>": 6754, "Montagu</w>": 6755, "Veng": 6756, "Vengeur</w>": 6757, "Tu</w>": 6758, "Gaelic</w>": 6759, "Play": 6760, "Rav": 6761, "Hon": 6762, "content</w>": 6763, "bb": 6764, "difficulty</w>": 6765, "spective</w>": 6766, "turns</w>": 6767, "unless</w>": 6768, "therwise</w>": 6769, "ca</w>": 6770, "Squ": 6771, "sper": 6772, "entry</w>": 6773, "tone</w>": 6774, "responsibility</w>": 6775, "duty</w>": 6776, "Fam": 6777, "copy</w>": 6778, "Hin": 6779, "vehi": 6780, "eived</w>": 6781, "Feder": 6782, "connection</w>": 6783, "telling</w>": 6784, "garrison</w>": 6785, "simply</w>": 6786, "interpreted</w>": 6787, "aug": 6788, "superi": 6789, "crisis</w>": 6790, "repairs</w>": 6791, "annon</w>": 6792, "900</w>": 6793, "somewhat</w>": 6794, "painted</w>": 6795, "1880</w>": 6796, "quick</w>": 6797, "1890</w>": 6798, "traded</w>": 6799, "sively</w>": 6800, "ountain</w>": 6801, "electric</w>": 6802, "visitors</w>": 6803, "Croy": 6804, "Croydon</w>": 6805, "Spring</w>": 6806, "Green": 6807, "Fair": 6808, "amateur</w>": 6809, "remarked</w>": 6810, "promise</w>": 6811, "sevent": 6812, "accompan": 6813, "accompanying</w>": 6814, "dily</w>": 6815, "pursue</w>": 6816, "attered</w>": 6817, "covers</w>": 6818, "ousness</w>": 6819, "1916</w>": 6820, "installed</w>": 6821, "1921</w>": 6822, "Treasury</w>": 6823, "roll</w>": 6824, "tist</w>": 6825, "fying</w>": 6826, "challenge</w>": 6827, "Org": 6828, "suggesting</w>": 6829, "continental</w>": 6830, "consu": 6831, "survive</w>": 6832, "1959</w>": 6833, "Nash</w>": 6834, "goalten": 6835, "goaltender</w>": 6836, "Cur": 6837, "entering</w>": 6838, "injured</w>": 6839, "Russell</w>": 6840, "warm</w>": 6841, "dead": 6842, "Minn": 6843, "Minneso": 6844, "Minnesota</w>": 6845, "correc": 6846, "adding</w>": 6847, "defeated</w>": 6848, "Jan</w>": 6849, "Greg": 6850, "architect</w>": 6851, "Julian</w>": 6852, "Christop": 6853, "Jesu": 6854, "97</w>": 6855, "physics</w>": 6856, "roof</w>": 6857, "camera</w>": 6858, "decorated</w>": 6859, "Singles</w>": 6860, "Bob</w>": 6861, "ldn</w>": 6862, "Only</w>": 6863, "bered</w>": 6864, "blockade</w>": 6865, "cargo</w>": 6866, "displac": 6867, "180</w>": 6868, "flagship</w>": 6869, "enses</w>": 6870, "manner</w>": 6871, "demonstrated</w>": 6872, "require</w>": 6873, "Sydney</w>": 6874, "Bol": 6875, "opposite</w>": 6876, "Ak": 6877, "billion</w>": 6878, "guest</w>": 6879, "seeing</w>": 6880, "contained</w>": 6881, "veget": 6882, "funds</w>": 6883, "concert</w>": 6884, "convinc": 6885, "anni": 6886, "Phil</w>": 6887, "concerns</w>": 6888, "immediate</w>": 6889, "rid": 6890, "Clevel": 6891, "Cleveland</w>": 6892, "recognition</w>": 6893, "Bre": 6894, "sole</w>": 6895, "bombar": 6896, "tonn": 6897, "tonnes</w>": 6898, "mounted</w>": 6899, "stations</w>": 6900, "element</w>": 6901, "surpri": 6902, "efs</w>": 6903, "writings</w>": 6904, "fundam": 6905, "fundamental</w>": 6906, "defini": 6907, "king": 6908, "absor": 6909, "ris</w>": 6910, "keeping</w>": 6911, "cloth": 6912, "gment</w>": 6913, "existing</w>": 6914, "sisted</w>": 6915, "passes</w>": 6916, "argum": 6917, "fit</w>": 6918, "bones</w>": 6919, "lying</w>": 6920, "soil</w>": 6921, "festival</w>": 6922, "Pra": 6923, "desire</w>": 6924, "All": 6925, "Part</w>": 6926, "ny</w>": 6927, "operating</w>": 6928, "tax": 6929, "annually</w>": 6930, "airports</w>": 6931, "market</w>": 6932, "environmental</w>": 6933, "sched": 6934, "scheduled</w>": 6935, "Ministry</w>": 6936, "170</w>": 6937, "touring</w>": 6938, "nation": 6939, "87</w>": 6940, "erly</w>": 6941, "airspace</w>": 6942, "grants</w>": 6943, "zone</w>": 6944, "civilians</w>": 6945, "transportation</w>": 6946, "ize</w>": 6947, "collapsed</w>": 6948, "Yu": 6949, "Ash": 6950, "Donald</w>": 6951, "leag": 6952, "leagues</w>": 6953, "1849</w>": 6954, "Congress</w>": 6955, "jewel": 6956, "strike</w>": 6957, "Patter": 6958, "Patterson</w>": 6959, "beau": 6960, "indicate</w>": 6961, "administration</w>": 6962, "resemb": 6963, "Brown</w>": 6964, "secured</w>": 6965, "susp": 6966, "alternative</w>": 6967, "subsequent</w>": 6968, "format</w>": 6969, "provides</w>": 6970, "sulfide</w>": 6971, "failing</w>": 6972, "ano</w>": 6973, "killing</w>": 6974, "reb": 6975, "opponents</w>": 6976, "Cabral</w>": 6977, "Police</w>": 6978, "involvement</w>": 6979, "unsuccessful</w>": 6980, "Mill": 6981, "simul": 6982, "Fron": 6983, "ze": 6984, "oted</w>": 6985, "bombers</w>": 6986, "kilomet": 6987, "kilometres</w>": 6988, "burial</w>": 6989, "searching</w>": 6990, "arrested</w>": 6991, "Mitchells</w>": 6992, "Gram": 6993, "Grammy</w>": 6994, "Republi": 6995, "laim</w>": 6996, "Den": 6997, "Liz</w>": 6998, "nominations</w>": 6999, "feelings</w>": 7000, "Lowe</w>": 7001, "obli": 7002, "edge</w>": 7003, "cool": 7004, "Heritage</w>": 7005, "peror</w>": 7006, "columns</w>": 7007, "capit": 7008, "riding</w>": 7009, "avoi": 7010, "Jews</w>": 7011, "isc": 7012, "Community</w>": 7013, "Gold": 7014, "Wea": 7015, "organisation</w>": 7016, "incident</w>": 7017, "BBC</w>": 7018, "eenth</w>": 7019, "induction</w>": 7020, "younger</w>": 7021, "unior</w>": 7022, "Port": 7023, "ird</w>": 7024, "Orlan": 7025, "Orlando</w>": 7026, "salary</w>": 7027, "03</w>": 7028, "forty</w>": 7029, "physici": 7030, "ok</w>": 7031, "publishing</w>": 7032, "Sym": 7033, "Andr": 7034, "Tech": 7035, "Techn": 7036, "lecru": 7037, "barrow</w>": 7038, "Stuart</w>": 7039, "1935</w>": 7040, "Rho": 7041, "Rhode</w>": 7042, "southwest</w>": 7043, "Kursti": 7044, "Kurstin</w>": 7045, "neath</w>": 7046, "vis</w>": 7047, "alities</w>": 7048, "audiences</w>": 7049, "counties</w>": 7050, "sailing</w>": 7051, "acid</w>": 7052, "uble</w>": 7053, "Tessa</w>": 7054, "pogra": 7055, "Astra": 7056, "Astraeus</w>": 7057, "tissue</w>": 7058, "rase</w>": 7059, "husbandman</w>": 7060, "parish</w>": 7061, "elegans</w>": 7062, "cyto": 7063, "clin": 7064, "climate</w>": 7065, "boxing</w>": 7066, "Princeton</w>": 7067, "pp</w>": 7068, "SR</w>": 7069, "hemmema</w>": 7070, "Alamos</w>": 7071, "Toso</w>": 7072, "11": 7073, "Lu</w>": 7074, "Marg": 7075, "Cricket</w>": 7076, "Susqu": 7077, "Susqueh": 7078, "Susquehanna</w>": 7079, "bridges</w>": 7080, "hairstyle</w>": 7081, "COs</w>": 7082, "essors</w>": 7083, "spee": 7084, "squad</w>": 7085, "Personal</w>": 7086, "Special</w>": 7087, "lose</w>": 7088, "independence</w>": 7089, "interests</w>": 7090, "prove</w>": 7091, "decides</w>": 7092, "confron": 7093, "predecessor</w>": 7094, "ji": 7095, "asy</w>": 7096, "reveal</w>": 7097, "promote</w>": 7098, "Magazine</w>": 7099, "criticism</w>": 7100, "DVD</w>": 7101, "downtown</w>": 7102, "housed</w>": 7103, "receives</w>": 7104, "vised</w>": 7105, "forc": 7106, "demand</w>": 7107, "conqu": 7108, "ussion</w>": 7109, "rifle</w>": 7110, "ell": 7111, "laboratory</w>": 7112, "eme": 7113, "labor</w>": 7114, "Library</w>": 7115, "Confederate</w>": 7116, "rowed</w>": 7117, "rank</w>": 7118, "interior</w>": 7119, "favor</w>": 7120, "Places</w>": 7121, "Science</w>": 7122, "1973</w>": 7123, "bought</w>": 7124, "unk</w>": 7125, "recommended</w>": 7126, "Worthing</w>": 7127, "clothing</w>": 7128, "admitted</w>": 7129, "Memorial</w>": 7130, "tho": 7131, "allers</w>": 7132, "maskray</w>": 7133, "thor": 7134, "receive</w>": 7135, "odd</w>": 7136, "requested</w>": 7137, "nego": 7138, "negoti": 7139, "signing</w>": 7140, "culmin": 7141, "coach": 7142, "dig": 7143, "Campbell</w>": 7144, "phase</w>": 7145, "stages</w>": 7146, "Studios</w>": 7147, "everyone</w>": 7148, "Neb": 7149, "Nebras": 7150, "Nebraska</w>": 7151, "Highway</w>": 7152, "termin": 7153, "Savann": 7154, "Savannah</w>": 7155, "owners</w>": 7156, "estuary</w>": 7157, "channel</w>": 7158, "angular</w>": 7159, "circulation</w>": 7160, "Officer</w>": 7161, "hant</w>": 7162, "sand": 7163, "disabled</w>": 7164, "law": 7165, "Del": 7166, "Cape</w>": 7167, "Sri</w>": 7168, "graduated</w>": 7169, "unrest</w>": 7170, "Arab": 7171, "Arabic</w>": 7172, "edding</w>": 7173, "Barry</w>": 7174, "fail": 7175, "failure</w>": 7176, "Tar": 7177, "confused</w>": 7178, "ini</w>": 7179, "negative</w>": 7180, "repu": 7181, "reputation</w>": 7182, "gets</w>": 7183, "onies</w>": 7184, "Week</w>": 7185, "twel": 7186, "Health</w>": 7187, "car</w>": 7188, "neck</w>": 7189, "universities</w>": 7190, "scholarship</w>": 7191, "tment</w>": 7192, "93</w>": 7193, "98</w>": 7194, "Kenne": 7195, "eness</w>": 7196, "Karl</w>": 7197, "Croatia</w>": 7198, "cruisers</w>": 7199, "aft</w>": 7200, "succeeded</w>": 7201, "74</w>": 7202, "phen": 7203, "phenom": 7204, "phenomen": 7205, "beings</w>": 7206, "deaths</w>": 7207, "royal</w>": 7208, "consistent</w>": 7209, "ruption</w>": 7210, "stantly</w>": 7211, "archy</w>": 7212, "oughts</w>": 7213, "lots</w>": 7214, "ficial</w>": 7215, "describe</w>": 7216, "fertili": 7217, "soul</w>": 7218, "fest": 7219, "ama": 7220, "moment</w>": 7221, "dismissed</w>": 7222, "materials</w>": 7223, "useful</w>": 7224, "Fis": 7225, "Fischer</w>": 7226, "ruled</w>": 7227, "isol": 7228, "interaction</w>": 7229, "rules</w>": 7230, "evil</w>": 7231, "hoped</w>": 7232, "encouraged</w>": 7233, "stel": 7234, "Cop": 7235, "what": 7236, "Ari": 7237, "describing</w>": 7238, "singing</w>": 7239, "anic</w>": 7240, "tro</w>": 7241, "seriously</w>": 7242, "replied</w>": 7243, "Pil": 7244, "rem": 7245, "agriculture</w>": 7246, "adver": 7247, "normally</w>": 7248, "ampionships</w>": 7249, "discipl": 7250, "categories</w>": 7251, "classification</w>": 7252, "context</w>": 7253, "lists</w>": 7254, "appropri": 7255, "appropriate</w>": 7256, "legislation</w>": 7257, "valid</w>": 7258, "Class</w>": 7259, "dreds</w>": 7260, "commerci": 7261, "refu": 7262, "criticised</w>": 7263, "accompani": 7264, "accompanied</w>": 7265, "ony": 7266, "approved</w>": 7267, "Liber": 7268, "Democ": 7269, "chu": 7270, "motion</w>": 7271, "bun": 7272, "bank</w>": 7273, "fill</w>": 7274, "ensure</w>": 7275, "detailed</w>": 7276, "doors</w>": 7277, "facility</w>": 7278, "ene</w>": 7279, "file</w>": 7280, "prohibi": 7281, "classical</w>": 7282, "escaped</w>": 7283, "prison</w>": 7284, "Pas": 7285, "van</w>": 7286, "Emi": 7287, "executed</w>": 7288, "ardo</w>": 7289, "Feast</w>": 7290, "jum": 7291, "Intelligence</w>": 7292, "tou": 7293, "speak</w>": 7294, "historians</w>": 7295, "De</w>": 7296, "showed</w>": 7297, "Marsh": 7298, "kend</w>": 7299, "Sevent": 7300, "approached</w>": 7301, "Is</w>": 7302, "tus</w>": 7303, "Hindu": 7304, "Hindu</w>": 7305, "UNES": 7306, "UNESCO</w>": 7307, "goods</w>": 7308, "portic": 7309, "portico</w>": 7310, "Destro": 7311, "Destroyer</w>": 7312, "alism</w>": 7313, "programs</w>": 7314, "recordings</w>": 7315, "Us</w>": 7316, "1977</w>": 7317, "Further</w>": 7318, "hur": 7319, "Coll": 7320, "cutting</w>": 7321, "wearing</w>": 7322, "hospit": 7323, "prisoners</w>": 7324, "Oly": 7325, "Olymp": 7326, "ppg</w>": 7327, "63</w>": 7328, "establishing</w>": 7329, "Flor": 7330, "Florid": 7331, "Florida</w>": 7332, "neutral</w>": 7333, "Tade": 7334, "Tadeusz</w>": 7335, "SS</w>": 7336, "emphasis</w>": 7337, "Atom": 7338, "Megaliths</w>": 7339, "gri": 7340, "Late</w>": 7341, "bee</w>": 7342, "partial</w>": 7343, "hop</w>": 7344, "Belgium</w>": 7345, "Tree</w>": 7346, "foundation</w>": 7347, "ester": 7348, "1976</w>": 7349, "gery</w>": 7350, "09</w>": 7351, "Foundation</w>": 7352, "Son": 7353, "FA": 7354, "angk": 7355, "videos</w>": 7356, "liqu": 7357, "rapid</w>": 7358, "About</w>": 7359, "council</w>": 7360, "Leban": 7361, "gie</w>": 7362, "Magno": 7363, "Magnolia</w>": 7364, "Sand": 7365, "windows</w>": 7366, "rail</w>": 7367, "opined</w>": 7368, "grain</w>": 7369, "ensus</w>": 7370, "Moo": 7371, "Moody</w>": 7372, "Conf": 7373, "Kree": 7374, "Kreeft</w>": 7375, "eng</w>": 7376, "cardin": 7377, "cardinals</w>": 7378, "prefect</w>": 7379, "zombie</w>": 7380, "Advent": 7381, "Kau": 7382, "GP": 7383, "GB</w>": 7384, "1794</w>": 7385, "NY</w>": 7386, "Seg": 7387, "Rele": 7388, "retained</w>": 7389, "partially</w>": 7390, "otherwise</w>": 7391, "distributed</w>": 7392, "task</w>": 7393, "atta": 7394, "ading</w>": 7395, "certain": 7396, "improve</w>": 7397, "achieve</w>": 7398, "compon": 7399, "identify</w>": 7400, "maintaining</w>": 7401, "reality</w>": 7402, "Production</w>": 7403, "Kim": 7404, "detail</w>": 7405, "topp": 7406, "charts</w>": 7407, "putting</w>": 7408, "dman</w>": 7409, "pressing</w>": 7410, "umes</w>": 7411, "instal": 7412, "ommis": 7413, "oldest</w>": 7414, "Origin": 7415, "Originally</w>": 7416, "Work</w>": 7417, "supposed</w>": 7418, "assembled</w>": 7419, "provisions</w>": 7420, "classified</w>": 7421, "Cav": 7422, "1862</w>": 7423, "equal</w>": 7424, "persons</w>": 7425, "shops</w>": 7426, "Mur": 7427, "pounder</w>": 7428, "conclusion</w>": 7429, "library</w>": 7430, "Register</w>": 7431, "1895</w>": 7432, "window</w>": 7433, "was": 7434, "wasn</w>": 7435, "edom</w>": 7436, "releases</w>": 7437, "Yor": 7438, "extent</w>": 7439, "subjects</w>": 7440, "opoli": 7441, "1922</w>": 7442, "Seven</w>": 7443, "girls</w>": 7444, "caught</w>": 7445, "measuring</w>": 7446, "tip</w>": 7447, "Islands</w>": 7448, "Queens": 7449, "diet</w>": 7450, "asse": 7451, "Scott</w>": 7452, "Jeff</w>": 7453, "Carter</w>": 7454, "spect</w>": 7455, "clock</w>": 7456, "Ot": 7457, "Det": 7458, "Detro": 7459, "Detroit</w>": 7460, "assists</w>": 7461, "struggle</w>": 7462, "Blues</w>": 7463, "clubs</w>": 7464, "cock</w>": 7465, "fortun": 7466, "protest</w>": 7467, "correct</w>": 7468, "viewing</w>": 7469, "propos": 7470, "yl": 7471, "regulation</w>": 7472, "eliminated</w>": 7473, "weigh": 7474, "listing</w>": 7475, "drove</w>": 7476, "lery</w>": 7477, "Vatic": 7478, "scription</w>": 7479, "revival</w>": 7480, "Father</w>": 7481, "erected</w>": 7482, "Charts</w>": 7483, "inspiration</w>": 7484, "Got</w>": 7485, "Mari": 7486, "nered</w>": 7487, "aim</w>": 7488, "apers</w>": 7489, "Mix</w>": 7490, "north": 7491, "kin</w>": 7492, "railroad</w>": 7493, "sections</w>": 7494, "monitors</w>": 7495, "supplies</w>": 7496, "aided</w>": 7497, "oriented</w>": 7498, "narrow</w>": 7499, "mounts</w>": 7500, "shells</w>": 7501, "rising</w>": 7502, "treat</w>": 7503, "Rear</w>": 7504, "Dah": 7505, "defend</w>": 7506, "eline</w>": 7507, "repor": 7508, "musician</w>": 7509, "Anup": 7510, "Earth</w>": 7511, "violent</w>": 7512, "boring</w>": 7513, "film": 7514, "crime</w>": 7515, "adm": 7516, "cover": 7517, "animals</w>": 7518, "ordingly</w>": 7519, "Asian</w>": 7520, "fs</w>": 7521, "Brian</w>": 7522, "convinced</w>": 7523, "leadership</w>": 7524, "symp": 7525, "diagnosis</w>": 7526, "fear</w>": 7527, "interested</w>": 7528, "recovery</w>": 7529, "dread": 7530, "dreadn": 7531, "engagement</w>": 7532, "Design</w>": 7533, "tubes</w>": 7534, "beliefs</w>": 7535, "symboli": 7536, "label": 7537, "ologist</w>": 7538, "origin</w>": 7539, "demons</w>": 7540, "ynastic</w>": 7541, "artwork</w>": 7542, "crossed</w>": 7543, "environment</w>": 7544, "understood</w>": 7545, "rup": 7546, "contain</w>": 7547, "tah</w>": 7548, "poorly</w>": 7549, "anity</w>": 7550, "statues</w>": 7551, "establish</w>": 7552, "refer</w>": 7553, "product</w>": 7554, "mani": 7555, "picture</w>": 7556, "complic": 7557, "asserted</w>": 7558, "credit</w>": 7559, "tren": 7560, "ordinary</w>": 7561, "heads</w>": 7562, "identity</w>": 7563, "Similarly</w>": 7564, "adult</w>": 7565, "filled</w>": 7566, "regul": 7567, "punishment</w>": 7568, "guil": 7569, "fruit": 7570, "Private</w>": 7571, "icide</w>": 7572, "discussed</w>": 7573, "promotional</w>": 7574, "classic</w>": 7575, "sically</w>": 7576, "Stone</w>": 7577, "thinking</w>": 7578, "essed</w>": 7579, "drums</w>": 7580, "defined</w>": 7581, "edu": 7582, "erated</w>": 7583, "EAS": 7584, "EASA</w>": 7585, "significance</w>": 7586, "aerodrome</w>": 7587, "defin": 7588, "Business</w>": 7589, "providing</w>": 7590, "recreational</w>": 7591, "big": 7592, "aces</w>": 7593, "wider</w>": 7594, "urban</w>": 7595, "joint</w>": 7596, "claiming</w>": 7597, "mixing</w>": 7598, "ratic</w>": 7599, "siege</w>": 7600, "collections</w>": 7601, "\u00b5m</w>": 7602, "stands</w>": 7603, "denomination</w>": 7604, "Soon</w>": 7605, "circle</w>": 7606, "Nevertheless</w>": 7607, "amounts</w>": 7608, "calls</w>": 7609, "coined</w>": 7610, "preparation</w>": 7611, "locally</w>": 7612, "elimin": 7613, "eliminate</w>": 7614, "Open</w>": 7615, "surviving</w>": 7616, "banks</w>": 7617, "items</w>": 7618, "cycl": 7619, "Ini": 7620, "adj": 7621, "revolution</w>": 7622, "plu": 7623, "fled</w>": 7624, "cross</w>": 7625, "inet</w>": 7626, "violation</w>": 7627, "Nob": 7628, "Tom": 7629, "theatrical</w>": 7630, "Cari": 7631, "Carib": 7632, "Caribbe": 7633, "Caribbean</w>": 7634, "frequent</w>": 7635, "liked</w>": 7636, "prohibited</w>": 7637, "top": 7638, "Front</w>": 7639, "Indies</w>": 7640, "commission</w>": 7641, "estry</w>": 7642, "expos": 7643, "exposure</w>": 7644, "Having</w>": 7645, "anion</w>": 7646, "occasionally</w>": 7647, "stock</w>": 7648, "Palin</w>": 7649, "Amy</w>": 7650, "Republican</w>": 7651, "Television</w>": 7652, "ist</w>": 7653, "scripts</w>": 7654, "longest</w>": 7655, "salv": 7656, "premiere</w>": 7657, "Secret</w>": 7658, "Phy": 7659, "conventional</w>": 7660, "quoted</w>": 7661, "Pow": 7662, "Walk</w>": 7663, "Super": 7664, "02</w>": 7665, "uri</w>": 7666, "Site</w>": 7667, "Kon": 7668, "numbered</w>": 7669, "subsi": 7670, "shoul": 7671, "lets</w>": 7672, "skull</w>": 7673, "address</w>": 7674, "atus</w>": 7675, "accomplished</w>": 7676, "shu": 7677, "drinking</w>": 7678, "immigration</w>": 7679, "tab": 7680, "work": 7681, "conduct</w>": 7682, "illance</w>": 7683, "banned</w>": 7684, "insey</w>": 7685, "statute</w>": 7686, "averaged</w>": 7687, "versy</w>": 7688, "walk</w>": 7689, "finals</w>": 7690, "dominated</w>": 7691, "beaten</w>": 7692, "Jazz</w>": 7693, "Thomp": 7694, "Thompson</w>": 7695, "Underground</w>": 7696, "Educ": 7697, "Education</w>": 7698, "educational</w>": 7699, "\u00f3w</w>": 7700, "bey</w>": 7701, "Jerzy</w>": 7702, "missile</w>": 7703, "battlecru": 7704, "ahead</w>": 7705, "BCE</w>": 7706, "medieval</w>": 7707, "Pig": 7708, "Piggo": 7709, "Piggott</w>": 7710, "Hartley</w>": 7711, "yne</w>": 7712, "Kras": 7713, "median</w>": 7714, "Marsh</w>": 7715, "beats</w>": 7716, "listen": 7717, "Underneath</w>": 7718, "Somer": 7719, "Somerset</w>": 7720, "Asia</w>": 7721, "loyd</w>": 7722, "Sunday</w>": 7723, "Flet": 7724, "Fletcher</w>": 7725, "Jar": 7726, "Mortim": 7727, "Mortimer</w>": 7728, "graduate</w>": 7729, "Welsh</w>": 7730, "Fox</w>": 7731, "Jerus": 7732, "Jerusal": 7733, "Jerusalem</w>": 7734, "Eight</w>": 7735, "earthstar</w>": 7736, "phrase</w>": 7737, "Hus": 7738, "78</w>": 7739, "eighteen</w>": 7740, "openings</w>": 7741, "bird</w>": 7742, "chicks</w>": 7743, "myeloid</w>": 7744, "genetics</w>": 7745, "professor</w>": 7746, "Shaogu": 7747, "Shaoguan</w>": 7748, "vard</w>": 7749, "Mill</w>": 7750, "virtue</w>": 7751, "Chut": 7752, "Chutz": 7753, "Chutzpa": 7754, "Chutzpah</w>": 7755, "homosexual</w>": 7756, "odas</w>": 7757, "Tac": 7758, "Clement</w>": 7759, "1759</w>": 7760, "whiskey</w>": 7761, "Chess</w>": 7762, "GM</w>": 7763, "Nc</w>": 7764, "Crane</w>": 7765, "Joey</w>": 7766, "scientious</w>": 7767, "Nam": 7768, "Nameless</w>": 7769, "underwent</w>": 7770, "compos": 7771, "Oz": 7772, "speech</w>": 7773, "cked</w>": 7774, "link</w>": 7775, "attribu": 7776, "ranks</w>": 7777, "escor": 7778, "asking</w>": 7779, "cept</w>": 7780, "revolutionary</w>": 7781, "dar": 7782, "appeal</w>": 7783, "multi</w>": 7784, "urring</w>": 7785, "Ryan</w>": 7786, "Pic": 7787, "happened</w>": 7788, "Gaz": 7789, "convention</w>": 7790, "informed</w>": 7791, "tile</w>": 7792, "dispatched</w>": 7793, "litia</w>": 7794, "situations</w>": 7795, "believing</w>": 7796, "Thus</w>": 7797, "substantial</w>": 7798, "rifles</w>": 7799, "valuable</w>": 7800, "sort</w>": 7801, "repair</w>": 7802, "iron": 7803, "ironcla": 7804, "meet": 7805, "meetings</w>": 7806, "exists</w>": 7807, "merged</w>": 7808, "Children</w>": 7809, "themed</w>": 7810, "glass</w>": 7811, "lake</w>": 7812, "seventeen</w>": 7813, "kinder": 7814, "kindergar": 7815, "kindergarten</w>": 7816, "household</w>": 7817, "paint": 7818, "paintings</w>": 7819, "1924</w>": 7820, "doubt</w>": 7821, "solely</w>": 7822, "Stor": 7823, "venue</w>": 7824, "1983</w>": 7825, "child": 7826, "childhood</w>": 7827, "wear</w>": 7828, "Along</w>": 7829, "Woo": 7830, "Wood": 7831, "1928</w>": 7832, "1953</w>": 7833, "1934</w>": 7834, "Harvey</w>": 7835, "tiful</w>": 7836, "printed</w>": 7837, "1955</w>": 7838, "mount</w>": 7839, "Among</w>": 7840, "FIFA</w>": 7841, "jan</w>": 7842, "tournament</w>": 7843, "ayed</w>": 7844, "qualified</w>": 7845, "abu": 7846, "continent</w>": 7847, "shallow</w>": 7848, "habitats</w>": 7849, "altern": 7850, "bands</w>": 7851, "oth</w>": 7852, "dark</w>": 7853, "poly": 7854, "scientific</w>": 7855, "line": 7856, "Archi": 7857, "Timor</w>": 7858, "Seas</w>": 7859, "males</w>": 7860, "ilers</w>": 7861, "aples</w>": 7862, "Mason</w>": 7863, "Moore</w>": 7864, "Pengu": 7865, "Penguins</w>": 7866, "Before</w>": 7867, "frame</w>": 7868, "tempor": 7869, "temporarily</w>": 7870, "tch</w>": 7871, "sitting</w>": 7872, "understanding</w>": 7873, "iring</w>": 7874, "hin": 7875, "bringing</w>": 7876, "proceeded</w>": 7877, "shots</w>": 7878, "draf": 7879, "secure</w>": 7880, "departed</w>": 7881, "Palace</w>": 7882, "observations</w>": 7883, "reform</w>": 7884, "reforms</w>": 7885, "plemented</w>": 7886, "observatory</w>": 7887, "forti": 7888, "tioning</w>": 7889, "composition</w>": 7890, "engineering</w>": 7891, "CD</w>": 7892, "memor": 7893, "derly</w>": 7894, "steps</w>": 7895, "Track</w>": 7896, "USS</w>": 7897, "deployed</w>": 7898, "beam</w>": 7899, "slow": 7900, "embarked</w>": 7901, "Richm": 7902, "Richmond</w>": 7903, "59</w>": 7904, "rect": 7905, "rectangular</w>": 7906, "banded</w>": 7907, "solid</w>": 7908, "bars</w>": 7909, "erable</w>": 7910, "Web": 7911, "haw": 7912, "landed</w>": 7913, "yards</w>": 7914, "resistance</w>": 7915, "easily</w>": 7916, "apparently</w>": 7917, "nomination</w>": 7918, "Bollywood</w>": 7919, "ethn": 7920, "ethnic</w>": 7921, "fourteen</w>": 7922, "orship</w>": 7923, "ranging</w>": 7924, "pleasure</w>": 7925, "ja</w>": 7926, "Bachchan</w>": 7927, "housing</w>": 7928, "ranking</w>": 7929, "Spi": 7930, "Coast</w>": 7931, "99</w>": 7932, "realized</w>": 7933, "Centre</w>": 7934, "raise</w>": 7935, "battleship</w>": 7936, "Ancon": 7937, "Ancona</w>": 7938, "twin</w>": 7939, "Anti</w>": 7940, "attempting</w>": 7941, "scra": 7942, "Ancient</w>": 7943, "goddesses</w>": 7944, "phara": 7945, "shrines</w>": 7946, "references</w>": 7947, "remin": 7948, "seated</w>": 7949, "resem": 7950, "resemble</w>": 7951, "ographi": 7952, "fort</w>": 7953, "listic</w>": 7954, "vener": 7955, "life": 7956, "truth</w>": 7957, "versal</w>": 7958, "constantly</w>": 7959, "Short</w>": 7960, "Osi": 7961, "Osiris</w>": 7962, "ruler</w>": 7963, "journey</w>": 7964, "linked</w>": 7965, "learning</w>": 7966, "herent</w>": 7967, "clothes</w>": 7968, "consul": 7969, "uln": 7970, "mono": 7971, "fund</w>": 7972, "apparent</w>": 7973, "flesh</w>": 7974, "dress</w>": 7975, "yellow</w>": 7976, "isolated</w>": 7977, "vention</w>": 7978, "rebellion</w>": 7979, "Mand": 7980, "Adri": 7981, "whatever</w>": 7982, "feels</w>": 7983, "Tom</w>": 7984, "Scre": 7985, "sounding</w>": 7986, "fts</w>": 7987, "Finnish</w>": 7988, "Tour</w>": 7989, "isn</w>": 7990, "anization</w>": 7991, "jet</w>": 7992, "racing</w>": 7993, "helic": 7994, "helicop": 7995, "neces": 7996, "althy</w>": 7997, "survey</w>": 7998, "AR</w>": 7999, "Hamp": 8000, "teria</w>": 8001, "mainten": 8002, "maintenance</w>": 8003, "segment</w>": 8004, "specifically</w>": 8005, "Within</w>": 8006, "PL</w>": 8007, "Gli": 8008, "formally</w>": 8009, "expensive</w>": 8010, "operational</w>": 8011, "alleged</w>": 8012, "abroad</w>": 8013, "theastern</w>": 8014, "enna</w>": 8015, "targets</w>": 8016, "husband</w>": 8017, "burned</w>": 8018, "roots</w>": 8019, "bearing</w>": 8020, "elli": 8021, "hyp": 8022, "Much</w>": 8023, "Massa": 8024, "Massachu": 8025, "Massachuset": 8026, "Massachusetts</w>": 8027, "Hud": 8028, "concerning</w>": 8029, "tened</w>": 8030, "trouble</w>": 8031, "1870</w>": 8032, "aboli": 8033, "journal</w>": 8034, "seeking</w>": 8035, "ued</w>": 8036, "Corey</w>": 8037, "Chay": 8038, "Chaykov": 8039, "Chaykovsky</w>": 8040, "application</w>": 8041, "products</w>": 8042, "blown</w>": 8043, "hero</w>": 8044, "signation</w>": 8045, "govern": 8046, "ongoing</w>": 8047, "agen": 8048, "instrumental</w>": 8049, "La</w>": 8050, "atro": 8051, "stories</w>": 8052, "eth</w>": 8053, "summ": 8054, "ustin</w>": 8055, "emotional</w>": 8056, "seas</w>": 8057, "za</w>": 8058, "unch</w>": 8059, "defending</w>": 8060, "plane</w>": 8061, "Head": 8062, "impression</w>": 8063, "1949</w>": 8064, "tel</w>": 8065, "Globe</w>": 8066, "eller</w>": 8067, "CA</w>": 8068, "Lem": 8069, "premiered</w>": 8070, "pregnant</w>": 8071, "Jean</w>": 8072, "Performan": 8073, "Express</w>": 8074, "Life</w>": 8075, "may": 8076, "scar</w>": 8077, "massive</w>": 8078, "manual</w>": 8079, "deed</w>": 8080, "showing</w>": 8081, "mound</w>": 8082, "carving</w>": 8083, "gamb": 8084, "gambling</w>": 8085, "Around</w>": 8086, "spear</w>": 8087, "Just</w>": 8088, "tourist</w>": 8089, "bay</w>": 8090, "measures</w>": 8091, "solid": 8092, "aming</w>": 8093, "Line</w>": 8094, "stream</w>": 8095, "simultaneously</w>": 8096, "therea": 8097, "thereafter</w>": 8098, "peaking</w>": 8099, "Finland</w>": 8100, "confirmed</w>": 8101, "footage</w>": 8102, "advent": 8103, "remixed</w>": 8104, "Beach</w>": 8105, "vival</w>": 8106, "reconstruction</w>": 8107, "Emperor</w>": 8108, "Square</w>": 8109, "demolition</w>": 8110, "Gri": 8111, "department</w>": 8112, "barri": 8113, "Imp": 8114, "Civilian</w>": 8115, "Reed</w>": 8116, "Emily</w>": 8117, "Seventeenth</w>": 8118, "Amend": 8119, "didates</w>": 8120, "Basketball</w>": 8121, "sor</w>": 8122, "Bla": 8123, "why</w>": 8124, "Bad</w>": 8125, "kins</w>": 8126, "block</w>": 8127, "waves</w>": 8128, "lam": 8129, "ois</w>": 8130, "Sovie": 8131, "Soviets</w>": 8132, "theater</w>": 8133, "Hans</w>": 8134, "Ukra": 8135, "farms</w>": 8136, "rever": 8137, "Rud": 8138, "attitude</w>": 8139, "rio": 8140, "Publi": 8141, "job": 8142, "jobs</w>": 8143, "oud": 8144, "Alfr": 8145, "Alfred</w>": 8146, "warships</w>": 8147, "trip</w>": 8148, "ounted</w>": 8149, "Kent</w>": 8150, "Coty</w>": 8151, "emphasi": 8152, "jun": 8153, "Ten</w>": 8154, "lo</w>": 8155, "ographic</w>": 8156, "marking</w>": 8157, "platin": 8158, "platinum</w>": 8159, "Studio</w>": 8160, "stu": 8161, "cold</w>": 8162, "conv": 8163, "extrem": 8164, "extremely</w>": 8165, "Say</w>": 8166, "surgery</w>": 8167, "Defense</w>": 8168, "ud</w>": 8169, "Reag": 8170, "aude": 8171, "Arab</w>": 8172, "Ti": 8173, "chant</w>": 8174, "iscu": 8175, "iscuous</w>": 8176, "grave</w>": 8177, "Alan</w>": 8178, "consent</w>": 8179, "metal": 8180, "Bene": 8181, "dubi": 8182, "Belfast</w>": 8183, "1877</w>": 8184, "Ze": 8185, "Zeal": 8186, "Zealand</w>": 8187, "Bishop</w>": 8188, "Gama</w>": 8189, "serial</w>": 8190, "shel": 8191, "spoiled</w>": 8192, "Pam</w>": 8193, "Chapat</w>": 8194, "non": 8195, "Uyghur</w>": 8196, "Medical</w>": 8197, "Free</w>": 8198, "hospitals</w>": 8199, "Clair</w>": 8200, "DePaul</w>": 8201, "page</w>": 8202, "dignity</w>": 8203, "Mutin": 8204, "Mutinus</w>": 8205, "galle": 8206, "galleys</w>": 8207, "hemmemas</w>": 8208, "Emma</w>": 8209, "funk</w>": 8210, "Shaol": 8211, "Shaolin</w>": 8212, "Deacon</w>": 8213, "typewriter</w>": 8214, "Adventures</w>": 8215, "xb</w>": 8216, "defences</w>": 8217, "Kauff": 8218, "Kauffman</w>": 8219, "Hospitaller</w>": 8220, "Hospitallers</w>": 8221, "Homs</w>": 8222, "Chas": 8223, "Chasuble</w>": 8224, "Bruns": 8225, "Brunswick</w>": 8226, "parall": 8227, "Hit": 8228, "fan</w>": 8229, "translation</w>": 8230, "Up</w>": 8231, "learn</w>": 8232, "skill</w>": 8233, "attached</w>": 8234, "itor</w>": 8235, "begin</w>": 8236, "Fu": 8237, "visual</w>": 8238, "chosen</w>": 8239, "Unlike</w>": 8240, "closure</w>": 8241, "abilities</w>": 8242, "removal</w>": 8243, "ints</w>": 8244, "Leg": 8245, "focused</w>": 8246, "vehic": 8247, "vehicles</w>": 8248, "respective</w>": 8249, "decommis": 8250, "Territory</w>": 8251, "determine</w>": 8252, "rumors</w>": 8253, "span</w>": 8254, "mess": 8255, "destination</w>": 8256, "ordnance</w>": 8257, "percussion</w>": 8258, "Regiment</w>": 8259, "inery</w>": 8260, "tools</w>": 8261, "Dunn": 8262, "onel</w>": 8263, "Sanford</w>": 8264, "surrendered</w>": 8265, "1874</w>": 8266, "closing</w>": 8267, "bian</w>": 8268, "fifty</w>": 8269, "1912</w>": 8270, "relocated</w>": 8271, "courses</w>": 8272, "mission": 8273, "Christ</w>": 8274, "principal</w>": 8275, "tumn</w>": 8276, "overeign</w>": 8277, "mark": 8278, "thro": 8279, "atmo": 8280, "atmosp": 8281, "Family</w>": 8282, "attend</w>": 8283, "York": 8284, "collaborated</w>": 8285, "restored</w>": 8286, "Edi": 8287, "printing</w>": 8288, "Ali": 8289, "Jones</w>": 8290, "Boy</w>": 8291, "Mr</w>": 8292, "Reli": 8293, "Garden</w>": 8294, "Wild</w>": 8295, "How</w>": 8296, "Andre": 8297, "youth</w>": 8298, "sanc": 8299, "pool</w>": 8300, "assistance</w>": 8301, "soft</w>": 8302, "green</w>": 8303, "eyes</w>": 8304, "lesser</w>": 8305, "acles</w>": 8306, "fold</w>": 8307, "habitat</w>": 8308, "measure</w>": 8309, "Head</w>": 8310, "Kings</w>": 8311, "65</w>": 8312, "eighth</w>": 8313, "Senators</w>": 8314, "Curtis</w>": 8315, "HL</w>": 8316, "breaking</w>": 8317, "picked</w>": 8318, "surance</w>": 8319, "notic": 8320, "investigation</w>": 8321, "earn</w>": 8322, "Playing</w>": 8323, "astr": 8324, "teamm": 8325, "versely</w>": 8326, "restricted</w>": 8327, "connects</w>": 8328, "Vatican</w>": 8329, "mathem": 8330, "240</w>": 8331, "circular</w>": 8332, "gi</w>": 8333, "lica</w>": 8334, "approval</w>": 8335, "strategic</w>": 8336, "Swed": 8337, "Sweden</w>": 8338, "papal</w>": 8339, "forth</w>": 8340, "Columbia</w>": 8341, "rhythm</w>": 8342, "talent</w>": 8343, "newspapers</w>": 8344, "sixteen</w>": 8345, "Railway</w>": 8346, "casem": 8347, "Scottish</w>": 8348, "Fing": 8349, "Fingal</w>": 8350, "Georgia</w>": 8351, "aground</w>": 8352, "ham": 8353, "displaced</w>": 8354, "pounds</w>": 8355, "110</w>": 8356, "prevented</w>": 8357, "fragments</w>": 8358, "sign": 8359, "upri": 8360, "delivered</w>": 8361, "rill": 8362, "confi": 8363, "mine</w>": 8364, "tant</w>": 8365, "\u20b9</w>": 8366, "looks</w>": 8367, "Kap": 8368, "Flying</w>": 8369, "mutual</w>": 8370, "organis": 8371, "advoc": 8372, "wore</w>": 8373, "App": 8374, "prefer": 8375, "superior</w>": 8376, "eux</w>": 8377, "symptom": 8378, "symptoms</w>": 8379, "spot</w>": 8380, "indi": 8381, "bombard": 8382, "bombardment</w>": 8383, "tiny</w>": 8384, "relations</w>": 8385, "kewise</w>": 8386, "dynastic</w>": 8387, "eith</w>": 8388, "Nu": 8389, "elite</w>": 8390, "mista": 8391, "oversaw</w>": 8392, "boundaries</w>": 8393, "patron</w>": 8394, "hostile</w>": 8395, "vine</w>": 8396, "behavior</w>": 8397, "erary</w>": 8398, "succession</w>": 8399, "elabor": 8400, "grow</w>": 8401, "perio": 8402, "epi": 8403, "gain</w>": 8404, "complicated</w>": 8405, "trend</w>": 8406, "Then</w>": 8407, "mediate</w>": 8408, "essions</w>": 8409, "decisions</w>": 8410, "dict</w>": 8411, "cosm": 8412, "answ": 8413, "philos": 8414, "Christians</w>": 8415, "Reign</w>": 8416, "Pop": 8417, "lau": 8418, "shoot</w>": 8419, "Chemical</w>": 8420, "aerial</w>": 8421, "registered</w>": 8422, "regarding</w>": 8423, "patrol</w>": 8424, "introduction</w>": 8425, "mature</w>": 8426, "ible</w>": 8427, "Haw": 8428, "exhibits</w>": 8429, "Sports</w>": 8430, "circuit</w>": 8431, "licensed</w>": 8432, "reviewed</w>": 8433, "rements</w>": 8434, "forts</w>": 8435, "notably</w>": 8436, "accid": 8437, "rable</w>": 8438, "hundreds</w>": 8439, "concentration</w>": 8440, "concentrated</w>": 8441, "chas": 8442, "commission": 8443, "strategy</w>": 8444, "My": 8445, "distinctive</w>": 8446, "microscop": 8447, "forest</w>": 8448, "ilton</w>": 8449, "Christopher</w>": 8450, "mountains</w>": 8451, "persu": 8452, "renewed</w>": 8453, "proposal</w>": 8454, "warned</w>": 8455, "borne</w>": 8456, "flow</w>": 8457, "Pier": 8458, "difficulties</w>": 8459, "trivi": 8460, "aside</w>": 8461, "substitu": 8462, "arsenic</w>": 8463, "efficient</w>": 8464, "similarly</w>": 8465, "bases</w>": 8466, "drug</w>": 8467, "resigned</w>": 8468, "Plan</w>": 8469, "hua</w>": 8470, "Here</w>": 8471, "ignor": 8472, "ignored</w>": 8473, "cabinet</w>": 8474, "aftermath</w>": 8475, "Nobel</w>": 8476, "dictator</w>": 8477, "corruption</w>": 8478, "absolute</w>": 8479, "comments</w>": 8480, "Ag": 8481, "grace</w>": 8482, "fas": 8483, "politic": 8484, "literary</w>": 8485, "sees</w>": 8486, "internal</w>": 8487, "Jon": 8488, "Jonathan</w>": 8489, "Vari": 8490, "auri": 8491, "RAF</w>": 8492, "accommod": 8493, "replacing</w>": 8494, "ais": 8495, "Mitchell</w>": 8496, "NW": 8497, "Marshal</w>": 8498, "provinc": 8499, "1951</w>": 8500, "Parliament</w>": 8501, "Tina</w>": 8502, "Sarah</w>": 8503, "Update</w>": 8504, "screen": 8505, "Guil": 8506, "editor</w>": 8507, "Denn": 8508, "Outstanding</w>": 8509, "Jane</w>": 8510, "Krak": 8511, "movies</w>": 8512, "Jenni": 8513, "Jennifer</w>": 8514, "Where</w>": 8515, "watched</w>": 8516, "deprec": 8517, "detected</w>": 8518, "sq</w>": 8519, "sand</w>": 8520, "tre</w>": 8521, "gal</w>": 8522, "chambers</w>": 8523, "Mount</w>": 8524, "skel": 8525, "ared</w>": 8526, "boy</w>": 8527, "assing</w>": 8528, "intly</w>": 8529, "opera</w>": 8530, "jo</w>": 8531, "pushing</w>": 8532, "varied</w>": 8533, "sam": 8534, "Independent</w>": 8535, "rower</w>": 8536, "munic": 8537, "Weather</w>": 8538, "devast": 8539, "surveillance</w>": 8540, "exac": 8541, "opposing</w>": 8542, "journalist</w>": 8543, "Jeff": 8544, "nets</w>": 8545, "marke": 8546, "securing</w>": 8547, "Bab": 8548, "Space</w>": 8549, "junior</w>": 8550, "averaging</w>": 8551, "controversy</w>": 8552, "zing</w>": 8553, "matters</w>": 8554, "Bobby</w>": 8555, "lin</w>": 8556, "studying</w>": 8557, "Eve</w>": 8558, "torial</w>": 8559, "intel": 8560, "intellec": 8561, "f\u00fc": 8562, "elementary</w>": 8563, "portrayed</w>": 8564, "ki</w>": 8565, "masters</w>": 8566, "j</w>": 8567, "Technology</w>": 8568, "K\u00f6": 8569, "Baltic</w>": 8570, "Scheer</w>": 8571, "insul": 8572, "insula</w>": 8573, "Ron": 8574, "sewhere</w>": 8575, "Sc": 8576, "nine": 8577, "beds</w>": 8578, "belonging</w>": 8579, "Pitt</w>": 8580, "Gra": 8581, "Krasnyi</w>": 8582, "battalion</w>": 8583, "1967</w>": 8584, "eleven</w>": 8585, "roads</w>": 8586, "Pet</w>": 8587, "Shop</w>": 8588, "boys</w>": 8589, "MTV</w>": 8590, "dits</w>": 8591, "Things</w>": 8592, "charted</w>": 8593, "Dig": 8594, "Min": 8595, "ara</w>": 8596, "Meh": 8597, "logs</w>": 8598, "Chu": 8599, "exerc": 8600, "AT": 8601, "fame</w>": 8602, "nut</w>": 8603, "Nich": 8604, "Nichol": 8605, "armies</w>": 8606, "ores</w>": 8607, "07</w>": 8608, "condem": 8609, "verte": 8610, "gleba</w>": 8611, "populations</w>": 8612, "grey</w>": 8613, "Oil</w>": 8614, "Brook</w>": 8615, "chances</w>": 8616, "NHA</w>": 8617, "ampion</w>": 8618, "Wiscon": 8619, "Wisconsin</w>": 8620, "Railroad</w>": 8621, "Vas": 8622, "Vasco</w>": 8623, "mother": 8624, "122</w>": 8625, "winter": 8626, "wintering</w>": 8627, "migration</w>": 8628, "Strand</w>": 8629, "facul": 8630, "faculty</w>": 8631, "Raym": 8632, "Raymond</w>": 8633, "Mack": 8634, "May": 8635, "slave</w>": 8636, "Zi": 8637, "plo": 8638, "ploitation</w>": 8639, "12": 8640, "Ages</w>": 8641, "speakers</w>": 8642, "Lin</w>": 8643, "parliament</w>": 8644, "Quite</w>": 8645, "1766</w>": 8646, "punc": 8647, "punctu": 8648, "punctuation</w>": 8649, "Ty": 8650, "Bun": 8651, "Ador": 8652, "Adorj": 8653, "Adorj\u00e1n</w>": 8654, "Township</w>": 8655, "pagodas</w>": 8656, "tees</w>": 8657, "gamep": 8658, "gameplay</w>": 8659, "animated</w>": 8660, "voic": 8661, "depending</w>": 8662, "Outside</w>": 8663, "occurs</w>": 8664, "completion</w>": 8665, "shift</w>": 8666, "weapon</w>": 8667, "enemies</w>": 8668, "arrest</w>": 8669, "escorted</w>": 8670, "card</w>": 8671, "platform</w>": 8672, "som": 8673, "improvements</w>": 8674, "models</w>": 8675, "transl": 8676, "topped</w>": 8677, "102</w>": 8678, "anno": 8679, "sequences</w>": 8680, "consequence</w>": 8681, "onists</w>": 8682, "1840</w>": 8683, "Natural</w>": 8684, "1894</w>": 8685, "supreme</w>": 8686, "Construction</w>": 8687, "perceived</w>": 8688, "Federal</w>": 8689, "ade": 8690, "exter": 8691, "spl": 8692, "simple</w>": 8693, "wait</w>": 8694, "possession</w>": 8695, "reinforc": 8696, "reinforcements</w>": 8697, "egra": 8698, "egraph</w>": 8699, "cannon</w>": 8700, "58</w>": 8701, "Note</w>": 8702, "alry</w>": 8703, "exha": 8704, "1863</w>": 8705, "Mach": 8706, "gathered</w>": 8707, "repaired</w>": 8708, "altered</w>": 8709, "basement</w>": 8710, "northwest</w>": 8711, "Mountain</w>": 8712, "displayed</w>": 8713, "Fo": 8714, "flowers</w>": 8715, "Doro": 8716, "Dorothy</w>": 8717, "Edmun": 8718, "Edmund</w>": 8719, "Rap": 8720, "youngest</w>": 8721, "1908</w>": 8722, "prize</w>": 8723, "submitted</w>": 8724, "Canon</w>": 8725, "1958</w>": 8726, "plants</w>": 8727, "cost": 8728, "leaves</w>": 8729, "Margar": 8730, "Margaret</w>": 8731, "scattered</w>": 8732, "technology</w>": 8733, "Set</w>": 8734, "1933</w>": 8735, "disappeared</w>": 8736, "lls</w>": 8737, "preparing</w>": 8738, "1932</w>": 8739, "Songs</w>": 8740, "Num": 8741, "naments</w>": 8742, "Games</w>": 8743, "Village</w>": 8744, "associations</w>": 8745, "1968</w>": 8746, "try": 8747, "wealth</w>": 8748, "angle</w>": 8749, "pointed</w>": 8750, "Sm": 8751, "fine</w>": 8752, "Draft</w>": 8753, "Assi": 8754, "Assistant</w>": 8755, "Rick</w>": 8756, "ager</w>": 8757, "Allen</w>": 8758, "sbur": 8759, "Vanc": 8760, "Vancou": 8761, "Vancouver</w>": 8762, "intention</w>": 8763, "vote</w>": 8764, "deliber": 8765, "delay</w>": 8766, "options</w>": 8767, "spects</w>": 8768, "Sam": 8769, "shut": 8770, "indicates</w>": 8771, "Villa</w>": 8772, "dial</w>": 8773, "courty": 8774, "libr": 8775, "VI</w>": 8776, "PM</w>": 8777, "Sub": 8778, "initiated</w>": 8779, "autom": 8780, "1905</w>": 8781, "Fourth</w>": 8782, "rooms</w>": 8783, "Power</w>": 8784, "yl</w>": 8785, "highligh": 8786, "memorable</w>": 8787, "gang</w>": 8788, "elderly</w>": 8789, "Wy": 8790, "reets</w>": 8791, "farmland</w>": 8792, "crosses</w>": 8793, "visible</w>": 8794, "calculated</w>": 8795, "alig": 8796, "Confederacy</w>": 8797, "Glas": 8798, "Glasg": 8799, "Glasgow</w>": 8800, "layers</w>": 8801, "pound</w>": 8802, "virtually</w>": 8803, "heat</w>": 8804, "pene": 8805, "Dahl": 8806, "pulled</w>": 8807, "aling</w>": 8808, "amid": 8809, "Sam</w>": 8810, "Race</w>": 8811, "Kim</w>": 8812, "Princess</w>": 8813, "fiction</w>": 8814, "lst</w>": 8815, "Kum": 8816, "Kumar</w>": 8817, "gross</w>": 8818, "Roy</w>": 8819, "departure</w>": 8820, "shares</w>": 8821, "Mun": 8822, "ipal</w>": 8823, "eleph": 8824, "elephant</w>": 8825, "helps</w>": 8826, "tims</w>": 8827, "assad": 8828, "Fashion</w>": 8829, "comeb": 8830, "comeback</w>": 8831, "Ed</w>": 8832, "appointment</w>": 8833, "participate</w>": 8834, "ridor</w>": 8835, "Austria</w>": 8836, "loud</w>": 8837, "\u201c</w>": 8838, "settled</w>": 8839, "1902</w>": 8840, "Br": 8841, "triple</w>": 8842, "twelve</w>": 8843, "mob": 8844, "mobili": 8845, "aimed</w>": 8846, "shipped</w>": 8847, "offer": 8848, "offerings</w>": 8849, "pharao": 8850, "myths</w>": 8851, "inations</w>": 8852, "eras</w>": 8853, "advice</w>": 8854, "estimates</w>": 8855, "Schol": 8856, "ologies</w>": 8857, "sugges": 8858, "hierog": 8859, "perfec": 8860, "perfectly</w>": 8861, "myth</w>": 8862, "definition</w>": 8863, "mann</w>": 8864, "attle</w>": 8865, "towns</w>": 8866, "Upper</w>": 8867, "absorbed</w>": 8868, "perception</w>": 8869, "chaos</w>": 8870, "draws</w>": 8871, "aggressive</w>": 8872, "eded</w>": 8873, "reveals</w>": 8874, "ector</w>": 8875, "Such</w>": 8876, "acle</w>": 8877, "hoping</w>": 8878, "ruling</w>": 8879, "1971</w>": 8880, "reader</w>": 8881, "scent</w>": 8882, "oring</w>": 8883, "horn</w>": 8884, "fit": 8885, "abun": 8886, "statue</w>": 8887, "exception</w>": 8888, "fate</w>": 8889, "commands</w>": 8890, "mention</w>": 8891, "eful</w>": 8892, "crops</w>": 8893, "sme": 8894, "stery</w>": 8895, "utili": 8896, "Artist</w>": 8897, "Howard</w>": 8898, "Matt</w>": 8899, "tribu": 8900, "Quar": 8901, "bomb</w>": 8902, "commenting</w>": 8903, "Organization</w>": 8904, "gliders</w>": 8905, "vint": 8906, "vintage</w>": 8907, "lanes</w>": 8908, "Lic": 8909, "vital</w>": 8910, "1956</w>": 8911, "Commer": 8912, "Commercial</w>": 8913, "custom": 8914, "involves</w>": 8915, "che": 8916, "progress</w>": 8917, "accur": 8918, "actual</w>": 8919, "excep": 8920, "corresponding</w>": 8921, "motor</w>": 8922, "formerly</w>": 8923, "err": 8924, "hot</w>": 8925, "inhib": 8926, "cruise</w>": 8927, "Kor": 8928, "vet": 8929, "Geop": 8930, "Geopy": 8931, "Geopyxis</w>": 8932, "temperate</w>": 8933, "organic</w>": 8934, "var</w>": 8935, "irregular</w>": 8936, "ange</w>": 8937, "moderate</w>": 8938, "colleagues</w>": 8939, "Bure": 8940, "Bureau</w>": 8941, "congre": 8942, "McK": 8943, "McKay</w>": 8944, "cer</w>": 8945, "discussion</w>": 8946, "Senate</w>": 8947, "minority</w>": 8948, "grounds</w>": 8949, "Hudson</w>": 8950, "opposition</w>": 8951, "Frankl": 8952, "Franklin</w>": 8953, "Contemporary</w>": 8954, "List</w>": 8955, "1850</w>": 8956, "striking</w>": 8957, "mption</w>": 8958, "rates</w>": 8959, "synthesis</w>": 8960, "reactions</w>": 8961, "adjac": 8962, "adjacent</w>": 8963, "depends</w>": 8964, "profile</w>": 8965, "carbon</w>": 8966, "reagent</w>": 8967, "preferred</w>": 8968, "cataly": 8969, "variations</w>": 8970, "Lim": 8971, "breaks</w>": 8972, "aut": 8973, "resignation</w>": 8974, "remove</w>": 8975, "conspir": 8976, "rememb": 8977, "Lyn": 8978, "Eric</w>": 8979, "policies</w>": 8980, "finding</w>": 8981, "junc": 8982, "rowing</w>": 8983, "nocent</w>": 8984, "Lorenz": 8985, "Lorenzo</w>": 8986, "Mel": 8987, "personality</w>": 8988, "tested</w>": 8989, "Mir": 8990, "split</w>": 8991, "reflected</w>": 8992, "Dic": 8993, "spiritual</w>": 8994, "regard</w>": 8995, "agrees</w>": 8996, "Miller</w>": 8997, "agi": 8998, "agiar": 8999, "agiarism</w>": 9000, "dipl": 9001, "diplom": 9002, "expeditions</w>": 9003, "elor</w>": 9004, "Forest</w>": 9005, "migr": 9006, "nickname</w>": 9007, "afterwards</w>": 9008, "sert</w>": 9009, "Headquarters</w>": 9010, "commanded</w>": 9011, "squadrons</w>": 9012, "disaster</w>": 9013, "erine</w>": 9014, "dia</w>": 9015, "Commanding</w>": 9016, "Cole</w>": 9017, "resources</w>": 9018, "ocean</w>": 9019, "raids</w>": 9020, "tivated</w>": 9021, "Dri": 9022, "Trust</w>": 9023, "sketch</w>": 9024, "Weekend</w>": 9025, "Poeh": 9026, "Poehler</w>": 9027, "acclaim</w>": 9028, "amin</w>": 9029, "Years</w>": 9030, "enro": 9031, "Sully</w>": 9032, "Lemon</w>": 9033, "Tim</w>": 9034, "Movi": 9035, "giant</w>": 9036, "memo": 9037, "Performance</w>": 9038, "lliant</w>": 9039, "Brigade</w>": 9040, "opinions</w>": 9041, "praise</w>": 9042, "chee": 9043, "stran": 9044, "planet</w>": 9045, "orb": 9046, "dity</w>": 9047, "Trimur": 9048, "Trimurti</w>": 9049, "Ravana</w>": 9050, "covering</w>": 9051, "shoulder</w>": 9052, "priest</w>": 9053, "Ling": 9054, "eze</w>": 9055, "path": 9056, "presents</w>": 9057, "Vai</w>": 9058, "ambi": 9059, "Band</w>": 9060, "disbanded</w>": 9061, "Spector</w>": 9062, "teen": 9063, "tape</w>": 9064, "entitled</w>": 9065, "mates</w>": 9066, "arrang": 9067, "united</w>": 9068, "Gro": 9069, "Zil": 9070, "Zilto": 9071, "Ziltoid</w>": 9072, "interviews</w>": 9073, "drugs</w>": 9074, "Morgan</w>": 9075, "genres</w>": 9076, "admir": 9077, "confisc": 9078, "confiscated</w>": 9079, "mayor</w>": 9080, "photographs</w>": 9081, "unist</w>": 9082, "vac": 9083, "funded</w>": 9084, "invest": 9085, "revised</w>": 9086, "barrier</w>": 9087, "offshore</w>": 9088, "Jersey</w>": 9089, "harbor</w>": 9090, "Appe": 9091, "Camp</w>": 9092, "targeted</w>": 9093, "statement</w>": 9094, "Trinsey</w>": 9095, "Law</w>": 9096, "Comb": 9097, "1963</w>": 9098, "cats</w>": 9099, "lyn</w>": 9100, "Il": 9101, "67</w>": 9102, "celebrity</w>": 9103, "golf</w>": 9104, "CB": 9105, "CBS</w>": 9106, "Niel": 9107, "Nielsen</w>": 9108, "Semi": 9109, "defenders</w>": 9110, "campaig": 9111, "ownership</w>": 9112, "profit</w>": 9113, "wealthy</w>": 9114, "Nazis</w>": 9115, "forb": 9116, "forbid": 9117, "forbidden</w>": 9118, "passages</w>": 9119, "pupil": 9120, "pupils</w>": 9121, "wartime</w>": 9122, "log": 9123, "directors</w>": 9124, "reversed</w>": 9125, "ocial</w>": 9126, "Anton": 9127, "awi": 9128, "eries</w>": 9129, "missiles</w>": 9130, "1974</w>": 9131, "tank</w>": 9132, "unclear</w>": 9133, "hits</w>": 9134, "belt</w>": 9135, "Wilhel": 9136, "05</w>": 9137, "Kit</w>": 9138, "potentially</w>": 9139, "klore</w>": 9140, "Isles</w>": 9141, "settlers</w>": 9142, "Thames</w>": 9143, "megali": 9144, "megalithic</w>": 9145, "termed</w>": 9146, "fall": 9147, "fallen</w>": 9148, "remn": 9149, "remnants</w>": 9150, "chron": 9151, "ck": 9152, "values</w>": 9153, "Ultimately</w>": 9154, "ink": 9155, "Wic": 9156, "grass": 9157, "eil</w>": 9158, "listeners</w>": 9159, "RCA</w>": 9160, "nie</w>": 9161, "snow</w>": 9162, "convection</w>": 9163, "restore</w>": 9164, "tric": 9165, "Hindi</w>": 9166, "Dharm": 9167, "Dharmend": 9168, "Dharmendra</w>": 9169, "Initially</w>": 9170, "extra": 9171, "Chair": 9172, "Chairman</w>": 9173, "bah": 9174, "baht</w>": 9175, "CNS</w>": 9176, "Sonth": 9177, "Sonthi</w>": 9178, "Dep": 9179, "Depu": 9180, "Deputy</w>": 9181, "class": 9182, "Bangk": 9183, "Bangkok</w>": 9184, "terminal</w>": 9185, "forcing</w>": 9186, "Reagan</w>": 9187, "Tal": 9188, "audeville</w>": 9189, "spou": 9190, "ouring</w>": 9191, "Mys": 9192, "Mysore</w>": 9193, "Cornwal": 9194, "Cornwallis</w>": 9195, "Strachan</w>": 9196, "merchant</w>": 9197, "Promiscuous</w>": 9198, "Mane": 9199, "Maneater</w>": 9200, "BDS</w>": 9201, "Ben</w>": 9202, "Jarvis</w>": 9203, "essive</w>": 9204, "metallic</w>": 9205, "volunte": 9206, "subcontinent</w>": 9207, "boom</w>": 9208, "Historical</w>": 9209, "criti": 9210, "dubious</w>": 9211, "wrong</w>": 9212, "Lebanon</w>": 9213, "Caes": 9214, "Caesar</w>": 9215, "igh": 9216, "Sic": 9217, "Joan</w>": 9218, "Rome</w>": 9219, "hag": 9220, "typogra": 9221, "researchers</w>": 9222, "worker</w>": 9223, "ables</w>": 9224, "Boogie</w>": 9225, "Nights</w>": 9226, "comedies</w>": 9227, "Tigers</w>": 9228, "pitched</w>": 9229, "368</w>": 9230, "Bou": 9231, "rectory</w>": 9232, "Las": 9233, "Stewar": 9234, "Stewart</w>": 9235, "Angelo</w>": 9236, "atric</w>": 9237, "abnorm": 9238, "abnormalities</w>": 9239, "subtypes</w>": 9240, "cytogenetics</w>": 9241, "prognostic</w>": 9242, "Comple": 9243, "OK</w>": 9244, "vez</w>": 9245, "blacks</w>": 9246, "Cardin": 9247, "Cardinals</w>": 9248, "petro": 9249, "Case</w>": 9250, "Matthe": 9251, "Matthew</w>": 9252, "Montagne</w>": 9253, "propor": 9254, "fleets</w>": 9255, "Wig": 9256, "Wigner</w>": 9257, "Terri</w>": 9258, "Margin</w>": 9259, "hou</w>": 9260, "Div</w>": 9261, "rugby</w>": 9262, "Ava</w>": 9263, "obook</w>": 9264, "erman</w>": 9265, "advantages</w>": 9266, "olev</w>": 9267, "Cox</w>": 9268, "Ryder</w>": 9269, "Bai": 9270, "captains</w>": 9271, "MGB</w>": 9272, "tactical</w>": 9273, "PlayStation</w>": 9274, "parallel</w>": 9275, "composer</w>": 9276, "sung</w>": 9277, "aps</w>": 9278, "Characters</w>": 9279, "Form</w>": 9280, "ilian</w>": 9281, "yrian</w>": 9282, "owing</w>": 9283, "trial</w>": 9284, "journalists</w>": 9285, "limit": 9286, "limitations</w>": 9287, "positively</w>": 9288, "Official</w>": 9289, "seemed</w>": 9290, "purchase</w>": 9291, "vals</w>": 9292, "principle</w>": 9293, "illustrated</w>": 9294, "MacArthur</w>": 9295, "Americans</w>": 9296, "ette</w>": 9297, "1860</w>": 9298, "deleg": 9299, "militia</w>": 9300, "aced</w>": 9301, "prompted</w>": 9302, "aspect</w>": 9303, "placing</w>": 9304, "stayed</w>": 9305, "Rif": 9306, "comprising</w>": 9307, "Van</w>": 9308, "machinery</w>": 9309, "mines</w>": 9310, "cured</w>": 9311, "donation</w>": 9312, "documents</w>": 9313, "impressed</w>": 9314, "borrowed</w>": 9315, "ironclad</w>": 9316, "penter</w>": 9317, "evacuation</w>": 9318, "seized</w>": 9319, "racks</w>": 9320, "renov": 9321, "Big</w>": 9322, "Roo": 9323, "eties</w>": 9324, "quarter": 9325, "decommissioned</w>": 9326, "preserve</w>": 9327, "commem": 9328, "Lea": 9329, "Kate</w>": 9330, "artistic</w>": 9331, "posthum": 9332, "belonged</w>": 9333, "nur": 9334, "drawings</w>": 9335, "freedom</w>": 9336, "Do": 9337, "fair": 9338, "ste</w>": 9339, "dens</w>": 9340, "Yorkshire</w>": 9341, "properties</w>": 9342, "natur": 9343, "Allies</w>": 9344, "pover": 9345, "poverty</w>": 9346, "exhibi": 9347, "Religi": 9348, "eeding</w>": 9349, "disciples</w>": 9350, "Holiday</w>": 9351, "Stev": 9352, "Bann": 9353, "withdrew</w>": 9354, "faces</w>": 9355, "delayed</w>": 9356, "among": 9357, "amongst</w>": 9358, "smooth</w>": 9359, "posse": 9360, "elevated</w>": 9361, "mol": 9362, "DN": 9363, "DNA</w>": 9364, "Description</w>": 9365, "rounded</w>": 9366, "pairs</w>": 9367, "shorter</w>": 9368, "dor": 9369, "kish</w>": 9370, "far": 9371, "substrate</w>": 9372, "gear</w>": 9373, "oming</w>": 9374, "sition</w>": 9375, "Ken</w>": 9376, "Hitch": 9377, "Hitchcock</w>": 9378, "publicly</w>": 9379, "deadline</w>": 9380, "fway</w>": 9381, "interim</w>": 9382, "consistently</w>": 9383, "kie</w>": 9384, "turer</w>": 9385, "Tayl": 9386, "Taylor</w>": 9387, "victories</w>": 9388, "dropped</w>": 9389, "Mic": 9390, "Tour": 9391, "Commod": 9392, "Commodore</w>": 9393, "replace</w>": 9394, "gated</w>": 9395, "flanked</w>": 9396, "falling</w>": 9397, "apart</w>": 9398, "respected</w>": 9399, "kness</w>": 9400, "83</w>": 9401, "gap</w>": 9402, "fresc": 9403, "sophi": 9404, "sophistic": 9405, "sophisticated</w>": 9406, "Ath": 9407, "garnered</w>": 9408, "Co</w>": 9409, "illy</w>": 9410, "mixes</w>": 9411, "hang": 9412, "chor": 9413, "chorus</w>": 9414, "dge": 9415, "intersection</w>": 9416, "concur": 9417, "1981</w>": 9418, "reserve</w>": 9419, "equipped</w>": 9420, "vertical</w>": 9421, "generated</w>": 9422, "passengers</w>": 9423, "sank</w>": 9424, "impossible</w>": 9425, "hull</w>": 9426, "conversion</w>": 9427, "rails</w>": 9428, "pine</w>": 9429, "water": 9430, "explosive</w>": 9431, "lag</w>": 9432, "tide</w>": 9433, "cav": 9434, "Tren": 9435, "anished</w>": 9436, "psych": 9437, "psychological</w>": 9438, "thrill": 9439, "thriller</w>": 9440, "IFA</w>": 9441, "Suppor": 9442, "Supporting</w>": 9443, "actre": 9444, "actresses</w>": 9445, "Ka": 9446, "romance</w>": 9447, "filmma": 9448, "till</w>": 9449, "un</w>": 9450, "bond</w>": 9451, "organisations</w>": 9452, "sanctu": 9453, "preceding</w>": 9454, "rities</w>": 9455, "scorer</w>": 9456, "diagnosed</w>": 9457, "choo": 9458, "Gary</w>": 9459, "uniform</w>": 9460, "evident</w>": 9461, "spending</w>": 9462, "spend</w>": 9463, "flotilla</w>": 9464, "propel": 9465, "breakout</w>": 9466, "heavier</w>": 9467, "function</w>": 9468, "tasks</w>": 9469, "diverse</w>": 9470, "Yet</w>": 9471, "theistic</w>": 9472, "count</w>": 9473, "traits</w>": 9474, "Peri": 9475, "Period</w>": 9476, "villages</w>": 9477, "rulers</w>": 9478, "priests</w>": 9479, "disorder</w>": 9480, "specialized</w>": 9481, "troub": 9482, "landsc": 9483, "landscape</w>": 9484, "disrup": 9485, "dically</w>": 9486, "solve</w>": 9487, "epithe": 9488, "kh": 9489, "dden</w>": 9490, "refuses</w>": 9491, "cure</w>": 9492, "eable</w>": 9493, "manifest": 9494, "vuln": 9495, "vulnerable</w>": 9496, "tism</w>": 9497, "acknowle": 9498, "acknowled": 9499, "inte": 9500, "excluded</w>": 9501, "totally</w>": 9502, "Eri": 9503, "arguments</w>": 9504, "likened</w>": 9505, "descrip": 9506, "dog</w>": 9507, "symbol</w>": 9508, "atures</w>": 9509, "shir": 9510, "object</w>": 9511, "pure</w>": 9512, "Finally</w>": 9513, "oples</w>": 9514, "extend</w>": 9515, "Beg": 9516, "Beginning</w>": 9517, "celebrated</w>": 9518, "onial</w>": 9519, "oked</w>": 9520, "swallowed</w>": 9521, "orated</w>": 9522, "review": 9523, "reviewer</w>": 9524, "cool</w>": 9525, "ounders</w>": 9526, "distur": 9527, "thinks</w>": 9528, "Rolling</w>": 9529, "Crown</w>": 9530, "originated</w>": 9531, "thodo": 9532, "thodox</w>": 9533, "listening</w>": 9534, "rendition</w>": 9535, "corpor": 9536, "contribution</w>": 9537, "flown</w>": 9538, "Pilot</w>": 9539, "glider</w>": 9540, "Auth": 9541, "objective</w>": 9542, "gliding</w>": 9543, "1909</w>": 9544, "DH</w>": 9545, "infra": 9546, "infrastructure</w>": 9547, "characterised</w>": 9548, "businesses</w>": 9549, "Hunter</w>": 9550, "restrictions</w>": 9551, "driven</w>": 9552, "criteria</w>": 9553, "navi": 9554, "Flight</w>": 9555, "vant</w>": 9556, "obtain</w>": 9557, "familiar</w>": 9558, "fish</w>": 9559, "drop</w>": 9560, "effectively</w>": 9561, "nau": 9562, "nautical</w>": 9563, "demonstration</w>": 9564, "Wars</w>": 9565, "gar</w>": 9566, "southeastern</w>": 9567, "dur": 9568, "tice</w>": 9569, "fruitbodies</w>": 9570, "1879</w>": 9571, "sulfur</w>": 9572, "strates</w>": 9573, "Large</w>": 9574, "forests</w>": 9575, "culate</w>": 9576, "Liberty</w>": 9577, "chair": 9578, "chairman</w>": 9579, "annular</w>": 9580, "repeat": 9581, "repeatedly</w>": 9582, "agg": 9583, "beautiful</w>": 9584, "atoes</w>": 9585, "salt</w>": 9586, "oneg": 9587, "dub": 9588, "1854</w>": 9589, "reducing</w>": 9590, "iden": 9591, "identical</w>": 9592, "occur</w>": 9593, "1878</w>": 9594, "Those</w>": 9595, "chemi": 9596, "epo": 9597, "epox": 9598, "idation</w>": 9599, "selective</w>": 9600, "variants</w>": 9601, "Wit": 9602, "nucle": 9603, "electron</w>": 9604, "yi": 9605, "rez</w>": 9606, "sty</w>": 9607, "exile</w>": 9608, "occasions</w>": 9609, "mate</w>": 9610, "supporters</w>": 9611, "encounter": 9612, "encountered</w>": 9613, "ici": 9614, "recon": 9615, "reconci": 9616, "reconcili": 9617, "reconciliation</w>": 9618, "recal": 9619, "unt</w>": 9620, "assassins</w>": 9621, "graphic</w>": 9622, "novel": 9623, "novels</w>": 9624, "twenti": 9625, "twentieth</w>": 9626, "nationalist</w>": 9627, "dancing</w>": 9628, "returns</w>": 9629, "torture</w>": 9630, "ults</w>": 9631, "\u00edn</w>": 9632, "chapters</w>": 9633, "hat": 9634, "loyalty</w>": 9635, "moments</w>": 9636, "discour": 9637, "sacri": 9638, "1978</w>": 9639, "bomber</w>": 9640, "earning</w>": 9641, "Peace</w>": 9642, "Keith</w>": 9643, "crash</w>": 9644, "rescued</w>": 9645, "Sta": 9646, "considering</w>": 9647, "strained</w>": 9648, "Eli": 9649, "Sisters</w>": 9650, "experiences</w>": 9651, "lix</w>": 9652, "ain</w>": 9653, "ece</w>": 9654, "Michaels</w>": 9655, "Dennis</w>": 9656, "pitch</w>": 9657, "times": 9658, "timeslot</w>": 9659, "theaters</w>": 9660, "Wall</w>": 9661, "judge</w>": 9662, "tradem": 9663, "trademark</w>": 9664, "vious</w>": 9665, "Who</w>": 9666, "Run</w>": 9667, "influential</w>": 9668, "Harb": 9669, "Cave</w>": 9670, "rises</w>": 9671, "Kail": 9672, "Kailash</w>": 9673, "Vish": 9674, "Vishn": 9675, "Vishnu</w>": 9676, "deno": 9677, "cite</w>": 9678, "attendants</w>": 9679, "leaf</w>": 9680, "Six</w>": 9681, "fast": 9682, "tourism</w>": 9683, "heritage</w>": 9684, "Monuments</w>": 9685, "undertaken</w>": 9686, "consolid": 9687, "consolidation</w>": 9688, "Heavy</w>": 9689, "mainst": 9690, "mainstre": 9691, "mainstream</w>": 9692, "satisfied</w>": 9693, "trick</w>": 9694, "Dark</w>": 9695, "chapter</w>": 9696, "Tracy</w>": 9697, "comparis": 9698, "Williams</w>": 9699, "Axis</w>": 9700, "Leop": 9701, "emetery</w>": 9702, "Rei": 9703, "tenth</w>": 9704, "industries</w>": 9705, "gusts</w>": 9706, "disma": 9707, "surge</w>": 9708, "barre": 9709, "Metro": 9710, "exactly</w>": 9711, "tactics</w>": 9712, "pher</w>": 9713, "Econ": 9714, "Econom": 9715, "candidates</w>": 9716, "constitutional</w>": 9717, "elling</w>": 9718, "oral</w>": 9719, "explic": 9720, "Jeffrey</w>": 9721, "Hornets</w>": 9722, "rebounds</w>": 9723, "Prof": 9724, "swept</w>": 9725, "Knic": 9726, "Knicks</w>": 9727, "Brad": 9728, "stick</w>": 9729, "pages</w>": 9730, "shoes</w>": 9731, "1969</w>": 9732, "Utah</w>": 9733, "inct</w>": 9734, "sale</w>": 9735, "pressive</w>": 9736, "annex": 9737, "annexed</w>": 9738, "manuscripts</w>": 9739, "Krak\u00f3w</w>": 9740, "lasts</w>": 9741, "scholarly</w>": 9742, "Juli": 9743, "Stefan</w>": 9744, "Orchestra</w>": 9745, "Stal": 9746, "Kaz": 9747, "imi": 9748, "imier": 9749, "imierz</w>": 9750, "ska</w>": 9751, "owa</w>": 9752, "transm": 9753, "amp</w>": 9754, "Arihant</w>": 9755, "elding</w>": 9756, "millimeters</w>": 9757, "liver</w>": 9758, "steamed</w>": 9759, "speculated</w>": 9760, "Peninsula</w>": 9761, "sail</w>": 9762, "total": 9763, "barrows</w>": 9764, "Lane</w>": 9765, "Mes": 9766, "Ashbee</w>": 9767, "elsewhere</w>": 9768, "ridge</w>": 9769, "examined</w>": 9770, "antiqu": 9771, "Antiquar": 9772, "Antiquaries</w>": 9773, "Kav": 9774, "Kavk": 9775, "Kavkaz</w>": 9776, "outes</w>": 9777, "crossing</w>": 9778, "aste</w>": 9779, "Get</w>": 9780, "Wilson</w>": 9781, "Credits</w>": 9782, "engin": 9783, "engineer</w>": 9784, "estone</w>": 9785, "lad</w>": 9786, "Newman</w>": 9787, "Digital</w>": 9788, "Ke": 9789, "erosion</w>": 9790, "outages</w>": 9791, "cket</w>": 9792, "Mehboo": 9793, "Mehbooba</w>": 9794, "ensuring</w>": 9795, "outlaws</w>": 9796, "digital</w>": 9797, "South": 9798, "Portsm": 9799, "Portsmouth</w>": 9800, "offering</w>": 9801, "Telec": 9802, "Telecom</w>": 9803, "Anupong</w>": 9804, "unnamed</w>": 9805, "ephone</w>": 9806, "Image</w>": 9807, "smoke</w>": 9808, "flame</w>": 9809, "interviewed</w>": 9810, "Telli": 9811, "Tellich": 9812, "Tellicherry</w>": 9813, "frigate</w>": 9814, "Admiralty</w>": 9815, "Wa": 9816, "guide</w>": 9817, "lah</w>": 9818, "Bowman</w>": 9819, "Carson</w>": 9820, "clean</w>": 9821, "gray</w>": 9822, "stib": 9823, "trioxide</w>": 9824, "characterized</w>": 9825, "decay</w>": 9826, "SbF</w>": 9827, "antim": 9828, "interpretation</w>": 9829, "cites</w>": 9830, "Boli": 9831, "patients</w>": 9832, "UCL</w>": 9833, "discipline</w>": 9834, "fishing</w>": 9835, "ammar</w>": 9836, "objectives</w>": 9837, "tribes</w>": 9838, "condemned</w>": 9839, "obligation</w>": 9840, "enor": 9841, "osaurus</w>": 9842, "hygro": 9843, "Oscar</w>": 9844, "1901</w>": 9845, "Nach": 9846, "Nachtig": 9847, "Nachtigall</w>": 9848, "andal</w>": 9849, "quite</w>": 9850, "Livin</w>": 9851, "palace</w>": 9852, "eggs</w>": 9853, "feral</w>": 9854, "vegetation</w>": 9855, "ail</w>": 9856, "prognosis</w>": 9857, "remission</w>": 9858, "leukemias</w>": 9859, "clinical</w>": 9860, "relap": 9861, "uan</w>": 9862, "vi</w>": 9863, "Immemorial</w>": 9864, "Conflict</w>": 9865, "Boat</w>": 9866, "Benedict</w>": 9867, "grav": 9868, "gravity</w>": 9869, "chasti": 9870, "chastity</w>": 9871, "Chapman</w>": 9872, "1769</w>": 9873, "oretical</w>": 9874, "wheel": 9875, "wheelchair</w>": 9876, "Dand": 9877, "Danden": 9878, "Dandenong</w>": 9879, "Sue</w>": 9880, "pon": 9881, "salo": 9882, "Tacuma</w>": 9883, "outlaw</w>": 9884, "Yu</w>": 9885, "Buchar": 9886, "Bucharest</w>": 9887, "Ozploitation</w>": 9888, "concla": 9889, "conclave</w>": 9890, "pope</w>": 9891, "Sac": 9892, "Sacred</w>": 9893, "Bernis</w>": 9894, "Horiz": 9895, "Belgian</w>": 9896, "Rb</w>": 9897, "xf</w>": 9898, "Bb</w>": 9899, "Cow": 9900, "Cowan</w>": 9901, "neutrin": 9902, "neutrinos</w>": 9903, "canal</w>": 9904, "Algy</w>": 9905, "Flo": 9906, "Flotilla</w>": 9907, "Ying": 9908, "Yingz": 9909, "Yingzao</w>": 9910, "Fashi": 9911, "Fashi</w>": 9912, "GPUs</w>": 9913, "motherboard</w>": 9914, "Tiber</w>": 9915, "conscientious</w>": 9916, "Mayo</w>": 9917, "Norman": 9918, "Mole</w>": 9919, "compati": 9920, "Az": 9921, "select</w>": 9922, "perspective</w>": 9923, "knocked</w>": 9924, "Kurt</w>": 9925, "swit": 9926, "Plot</w>": 9927, "Gallian</w>": 9928, "Ir": 9929, "ideal</w>": 9930, "none</w>": 9931, "essenti": 9932, "essentially</w>": 9933, "Release</w>": 9934, "arriving</w>": 9935, "demo</w>": 9936, "flu": 9937, "download</w>": 9938, "translated</w>": 9939, "isms</w>": 9940, "availability</w>": 9941, "\u00c6s": 9942, "\u00c6sthetic</w>": 9943, "Expe": 9944, "Expedition</w>": 9945, "skir": 9946, "Artill": 9947, "Artillery</w>": 9948, "Totten</w>": 9949, "consider</w>": 9950, "Local</w>": 9951, "message</w>": 9952, "chest</w>": 9953, "ultimate</w>": 9954, "guar": 9955, "ordering</w>": 9956, "emergency</w>": 9957, "colli": 9958, "withdraw</w>": 9959, "deposi": 9960, "ratch</w>": 9961, "Battalion</w>": 9962, "exhau": 9963, "vicinity</w>": 9964, "strating</w>": 9965, "inspec": 9966, "Dunnington</w>": 9967, "functions</w>": 9968, "Vol</w>": 9969, "Chapter</w>": 9970, "rounds</w>": 9971, "96</w>": 9972, "carri": 9973, "packed</w>": 9974, "1893</w>": 9975, "devoted</w>": 9976, "demolished</w>": 9977, "membership</w>": 9978, "106</w>": 9979, "gathering</w>": 9980, "Market</w>": 9981, "Similar</w>": 9982, "Child</w>": 9983, "ink</w>": 9984, "theories</w>": 9985, "Wad": 9986, "evening</w>": 9987, "afterward</w>": 9988, "publishers</w>": 9989, "modelled</w>": 9990, "readily</w>": 9991, "rington</w>": 9992, "Near</w>": 9993, "Our</w>": 9994, "devol": 9995, "devolved</w>": 9996, "sponsored</w>": 9997, "dust</w>": 9998, "1800</w>": 9999, "Simon</w>": 10000, "outlined</w>": 10001, "Know": 10002, "1962</w>": 10003, "mon</w>": 10004, "affili": 10005, "charter</w>": 10006, "dean</w>": 10007, "lacks</w>": 10008, "Conservation</w>": 10009, "irs</w>": 10010, "atively</w>": 10011, "bears</w>": 10012, "Small</w>": 10013, "Queensland</w>": 10014, "Bon": 10015, "apar": 10016, "Guine": 10017, "Guinea</w>": 10018, "gging</w>": 10019, "functional</w>": 10020, "maturity</w>": 10021, "selection</w>": 10022, "Richar": 10023, "Richards</w>": 10024, "Howson</w>": 10025, "ov</w>": 10026, "Otta": 10027, "Ottaw": 10028, "Ottawa</w>": 10029, "string</w>": 10030, "hire</w>": 10031, "trading</w>": 10032, "Conn": 10033, "Aren": 10034, "Arena</w>": 10035, "wrong": 10036, "talking</w>": 10037, "actively</w>": 10038, "dealt</w>": 10039, "flex": 10040, "conference</w>": 10041, "collectively</w>": 10042, "teammates</w>": 10043, "Gregor": 10044, "Gregorian</w>": 10045, "Gallery</w>": 10046, "Apost": 10047, "Apostoli": 10048, "onomical</w>": 10049, "1891</w>": 10050, "enh": 10051, "Mer": 10052, "locations</w>": 10053, "continuous</w>": 10054, "enclosed</w>": 10055, "Rafa": 10056, "Rafael</w>": 10057, "key": 10058, "Composition</w>": 10059, "cli": 10060, "forma": 10061, "formations</w>": 10062, "connecting</w>": 10063, "1865</w>": 10064, "Cly": 10065, "Clyde</w>": 10066, "bore</w>": 10067, "stro": 10068, "stroke</w>": 10069, "Bullo": 10070, "Bulloch</w>": 10071, "disgu": 10072, "rende": 10073, "rendez": 10074, "rendezv": 10075, "slowly</w>": 10076, "anyone</w>": 10077, "tton</w>": 10078, "financed</w>": 10079, "waiting</w>": 10080, "augm": 10081, "augmented</w>": 10082, "dg": 10083, "easy</w>": 10084, "pushed</w>": 10085, "penetr": 10086, "maneu": 10087, "representatives</w>": 10088, "260</w>": 10089, "Jacqu": 10090, "Lanka</w>": 10091, "communication</w>": 10092, "orous</w>": 10093, "grossing</w>": 10094, "jeev</w>": 10095, "diff</w>": 10096, "Malini</w>": 10097, "ematic</w>": 10098, "satire</w>": 10099, "challenging</w>": 10100, "horror</w>": 10101, "Amit": 10102, "Amitab": 10103, "Amitabh</w>": 10104, "Gold</w>": 10105, "reali": 10106, "wedding</w>": 10107, "causes</w>": 10108, "victims</w>": 10109, "resta": 10110, "restaur": 10111, "ambassad": 10112, "contr": 10113, "contrary</w>": 10114, "fth</w>": 10115, "Hartford</w>": 10116, "annivers": 10117, "anniversary</w>": 10118, "Parker</w>": 10119, "qui": 10120, "dealing</w>": 10121, "illness</w>": 10122, "examination</w>": 10123, "\u201d</w>": 10124, "Turkey</w>": 10125, "lighter</w>": 10126, "scrap</w>": 10127, "sometime</w>": 10128, "combinations</w>": 10129, "Aten": 10130, "Atenism</w>": 10131, "acceptance</w>": 10132, "phs</w>": 10133, "reflecting</w>": 10134, "prehistoric</w>": 10135, "cattle</w>": 10136, "Frank": 10137, "traditions</w>": 10138, "Nile</w>": 10139, "kinson</w>": 10140, "divini": 10141, "divinities</w>": 10142, "thoughts</w>": 10143, "differentiated</w>": 10144, "recurring</w>": 10145, "battles</w>": 10146, "amid</w>": 10147, "distant</w>": 10148, "inhab": 10149, "Tem": 10150, "centered</w>": 10151, "sided</w>": 10152, "origins</w>": 10153, "lord</w>": 10154, "fting</w>": 10155, "connections</w>": 10156, "protector</w>": 10157, "Hath": 10158, "Hathor</w>": 10159, "Hel": 10160, "adopt</w>": 10161, "component</w>": 10162, "toler": 10163, "rat</w>": 10164, "deeper</w>": 10165, "specified</w>": 10166, "concludes</w>": 10167, "mining</w>": 10168, "genu": 10169, "presentation</w>": 10170, "bull</w>": 10171, "governed</w>": 10172, "practical</w>": 10173, "rescue</w>": 10174, "guilty</w>": 10175, "performer</w>": 10176, "Occ": 10177, "innov": 10178, "ophy</w>": 10179, "persisted</w>": 10180, "Geff": 10181, "Geffen</w>": 10182, "distor": 10183, "guitars</w>": 10184, "Suicide</w>": 10185, "Dave</w>": 10186, "couldn</w>": 10187, "Kerry</w>": 10188, "Larry</w>": 10189, "sacrif": 10190, "sacrifice</w>": 10191, "blew</w>": 10192, "hear</w>": 10193, "sounds</w>": 10194, "Rober": 10195, "tribute</w>": 10196, "ghter</w>": 10197, "Elec": 10198, "doz": 10199, "atics</w>": 10200, "Licence</w>": 10201, "Agency</w>": 10202, "worthin": 10203, "worthiness</w>": 10204, "photography</w>": 10205, "Armed</w>": 10206, "experiments</w>": 10207, "movements</w>": 10208, "agon</w>": 10209, "160</w>": 10210, "races</w>": 10211, "Hampshire</w>": 10212, "requirements</w>": 10213, "comprised</w>": 10214, "certainty</w>": 10215, "cust": 10216, "sation</w>": 10217, "weak": 10218, "implement</w>": 10219, "EU</w>": 10220, "ission</w>": 10221, "desirable</w>": 10222, "nationally</w>": 10223, "concern</w>": 10224, "thereby</w>": 10225, "smar": 10226, "Croatian</w>": 10227, "dock": 10228, "Hungary</w>": 10229, "hostili": 10230, "declaration</w>": 10231, "doms</w>": 10232, "shortage</w>": 10233, "tap": 10234, "1853</w>": 10235, "derives</w>": 10236, "Common</w>": 10237, "ttle</w>": 10238, "ro</w>": 10239, "pale</w>": 10240, "deeply</w>": 10241, "odor</w>": 10242, "burn</w>": 10243, "burning</w>": 10244, "adic</w>": 10245, "Hamilton</w>": 10246, "cht</w>": 10247, "mints</w>": 10248, "eagle</w>": 10249, "assist</w>": 10250, "tedly</w>": 10251, "favorable</w>": 10252, "probability</w>": 10253, "Orle": 10254, "Orleans</w>": 10255, "princess</w>": 10256, "trivial</w>": 10257, "testing</w>": 10258, "stronger</w>": 10259, "ereo": 10260, "ylides</w>": 10261, "react</w>": 10262, "few": 10263, "fewer</w>": 10264, "esters</w>": 10265, "extensively</w>": 10266, "excess</w>": 10267, "variant</w>": 10268, "competitive</w>": 10269, "Ciud": 10270, "Ciudad</w>": 10271, "Mexican</w>": 10272, "Barra</w>": 10273, "courts</w>": 10274, "impris": 10275, "imprisoned</w>": 10276, "Luis</w>": 10277, "democ": 10278, "ists</w>": 10279, "Cuaut": 10280, "Cuautla</w>": 10281, "affairs</w>": 10282, "merely</w>": 10283, "suppress</w>": 10284, "machi": 10285, "machism": 10286, "machismo</w>": 10287, "comment</w>": 10288, "etown</w>": 10289, "IM</w>": 10290, "ulted</w>": 10291, "sleep</w>": 10292, "rape</w>": 10293, "junction</w>": 10294, "Colonel</w>": 10295, "mere</w>": 10296, "Antoni": 10297, "Antonio</w>": 10298, "throw</w>": 10299, "innocent</w>": 10300, "Ama": 10301, "creates</w>": 10302, "expression</w>": 10303, "conquest</w>": 10304, "abuse</w>": 10305, "legacy</w>": 10306, "Wood</w>": 10307, "Death</w>": 10308, "plagiarism</w>": 10309, "Training</w>": 10310, "Pur": 10311, "diplomatic</w>": 10312, "Bush</w>": 10313, "81</w>": 10314, "rough</w>": 10315, "undertook</w>": 10316, "reconn": 10317, "reconnais": 10318, "reconnaiss": 10319, "reconnaissance</w>": 10320, "Squadrons</w>": 10321, "Beaufighters</w>": 10322, "provincial</w>": 10323, "enabled</w>": 10324, "subur": 10325, "suburb</w>": 10326, "za": 10327, "comedian</w>": 10328, "improvi": 10329, "Guild</w>": 10330, "immigrants</w>": 10331, "Cau": 10332, "talk</w>": 10333, "Fall": 10334, "Fallon</w>": 10335, "preced": 10336, "bright</w>": 10337, "USA</w>": 10338, "Progr": 10339, "Program</w>": 10340, "prime</w>": 10341, "Carol</w>": 10342, "funny</w>": 10343, "commercials</w>": 10344, "persona</w>": 10345, "entertainment</w>": 10346, "glob": 10347, "global</w>": 10348, "scientists</w>": 10349, "decre": 10350, "indeed</w>": 10351, "nearest</w>": 10352, "cuts</w>": 10353, "heroes</w>": 10354, "yas</w>": 10355, "kingdom</w>": 10356, "honour</w>": 10357, "abandon": 10358, "damaging</w>": 10359, "crown</w>": 10360, "dressed</w>": 10361, "attendant</w>": 10362, "skeleton</w>": 10363, "Garud": 10364, "Garuda</w>": 10365, "keepers</w>": 10366, "close": 10367, "closest</w>": 10368, "ruined</w>": 10369, "legs</w>": 10370, "leg</w>": 10371, "thi": 10372, "Linga</w>": 10373, "worse</w>": 10374, "Across</w>": 10375, "declaring</w>": 10376, "1966</w>": 10377, "document</w>": 10378, "rocks</w>": 10379, "jointly</w>": 10380, "compre": 10381, "compreh": 10382, "comprehensive</w>": 10383, "ranges</w>": 10384, "minster</w>": 10385, "Exo": 10386, "Exodu": 10387, "Exodus</w>": 10388, "Machine</w>": 10389, "meat</w>": 10390, "checked</w>": 10391, "driving</w>": 10392, "Crai": 10393, "exploration</w>": 10394, "ton": 10395, "tongue</w>": 10396, "recruited</w>": 10397, "cement</w>": 10398, "fies</w>": 10399, "Revival</w>": 10400, "Pra\u0161": 10401, "Pra\u0161ka</w>": 10402, "corner</w>": 10403, "moti": 10404, "nave</w>": 10405, "accommo": 10406, "accommodate</w>": 10407, "solution</w>": 10408, "astal</w>": 10409, "disturb": 10410, "disturbance</w>": 10411, "lum": 10412, "lumber</w>": 10413, "175</w>": 10414, "Imp\u00e9": 10415, "Imp\u00e9tu": 10416, "Imp\u00e9tueux</w>": 10417, "washed</w>": 10418, "slaves</w>": 10419, "ashore</w>": 10420, "wave</w>": 10421, "Unit</w>": 10422, "polit": 10423, "politan</w>": 10424, "rout": 10425, "criminal</w>": 10426, "violated</w>": 10427, "freed</w>": 10428, "uncertain</w>": 10429, "Amendment</w>": 10430, "challenged</w>": 10431, "Combined</w>": 10432, "shments</w>": 10433, "steals</w>": 10434, "Olympic</w>": 10435, "eled</w>": 10436, "blocks</w>": 10437, "highlight</w>": 10438, "sentenced</w>": 10439, "Nick</w>": 10440, "Rodman</w>": 10441, "CI</w>": 10442, "openly</w>": 10443, "intensity</w>": 10444, "crowd</w>": 10445, "dale</w>": 10446, "profession": 10447, "decreas": 10448, "Whit": 10449, "occupying</w>": 10450, "concerts</w>": 10451, "degre": 10452, "degrees</w>": 10453, "invaded</w>": 10454, "Propaganda</w>": 10455, "cens": 10456, "feats</w>": 10457, "libraries</w>": 10458, "Christianity</w>": 10459, "intellectual</w>": 10460, "Every</w>": 10461, "Stanis": 10462, "Stanis\u0142aw</w>": 10463, "W\u0142": 10464, "doctoral</w>": 10465, "publisher</w>": 10466, "Henry": 10467, "Davies</w>": 10468, "print</w>": 10469, "Naval</w>": 10470, "construct</w>": 10471, "MW</w>": 10472, "launch</w>": 10473, "urani": 10474, "uranium</w>": 10475, "reactors</w>": 10476, "K\u00f6ni": 10477, "K\u00f6nig</w>": 10478, "Gross": 10479, "Grosser</w>": 10480, "Kurf\u00fc": 10481, "Kurf\u00fcr": 10482, "Kurf\u00fcrst</w>": 10483, "uter</w>": 10484, "hl</w>": 10485, "battlecruis": 10486, "battlecruisers</w>": 10487, "faster</w>": 10488, "hail</w>": 10489, "explosion</w>": 10490, "ker": 10491, "farming</w>": 10492, "Bron": 10493, "Bronze</w>": 10494, "slop": 10495, "markers</w>": 10496, "bal</w>": 10497, "meters</w>": 10498, "140</w>": 10499, "Petrie</w>": 10500, "Payne</w>": 10501, "Gilbert</w>": 10502, "Siege</w>": 10503, "Sev": 10504, "Sevast": 10505, "Sevastop": 10506, "Sevastopol</w>": 10507, "nel</w>": 10508, "apse</w>": 10509, "beach": 10510, "arter": 10511, "arterial</w>": 10512, "1965</w>": 10513, "Transpor": 10514, "Transportation</w>": 10515, "interchange</w>": 10516, "RID": 10517, "Ple": 10518, "wine</w>": 10519, "garage</w>": 10520, "Tale</w>": 10521, "biggest</w>": 10522, "Vo": 10523, "Voice</w>": 10524, "Cin": 10525, "strongest</w>": 10526, "execution</w>": 10527, "faith": 10528, "easter</w>": 10529, "daco": 10530, "Bha": 10531, "Bhadu": 10532, "Bhaduri</w>": 10533, "agara</w>": 10534, "dialogu": 10535, "dialogues</w>": 10536, "Basanti</w>": 10537, "Rad": 10538, "pursuit</w>": 10539, "Mac</w>": 10540, "villa": 10541, "angal": 10542, "angalore</w>": 10543, "fifteen</w>": 10544, "friend": 10545, "friendship</w>": 10546, "Box</w>": 10547, "gol": 10548, "Actor</w>": 10549, "iconic</w>": 10550, "colour</w>": 10551, "Here": 10552, "Hereford</w>": 10553, "Marie</w>": 10554, "ampton</w>": 10555, "Wemb": 10556, "Wembley</w>": 10557, "weak</w>": 10558, "junta</w>": 10559, "Directors</w>": 10560, "Province</w>": 10561, "patient</w>": 10562, "tium</w>": 10563, "mind</w>": 10564, "realised</w>": 10565, "suspended</w>": 10566, "Sciences</w>": 10567, "Yan": 10568, "Lloyd</w>": 10569, "Giant</w>": 10570, "swallowing</w>": 10571, "liquid</w>": 10572, "Right</w>": 10573, "cute</w>": 10574, "Mine</w>": 10575, "ling": 10576, "Flee": 10577, "Fleetw": 10578, "Fleetwood</w>": 10579, "Elli": 10580, "Coul": 10581, "Coulson</w>": 10582, "Bir": 10583, "monk</w>": 10584, "ogen": 10585, "mechanical</w>": 10586, "neutron</w>": 10587, "WH": 10588, "WHO</w>": 10589, "eper</w>": 10590, "method": 10591, "1907</w>": 10592, "favoured</w>": 10593, "instructed</w>": 10594, "aly</w>": 10595, "arte": 10596, "artefacts</w>": 10597, "yon</w>": 10598, "Syria</w>": 10599, "Agre": 10600, "Agreement</w>": 10601, "Naples</w>": 10602, "Fel": 10603, "Sud": 10604, "saur</w>": 10605, "maximus</w>": 10606, "sp</w>": 10607, "vary</w>": 10608, "differentiation</w>": 10609, "Labro": 10610, "Labrosaurus</w>": 10611, "historically</w>": 10612, "asi": 10613, "Drun": 10614, "Baker</w>": 10615, "olds</w>": 10616, "plague</w>": 10617, "Pear": 10618, "moral": 10619, "moralit": 10620, "moralitas</w>": 10621, "pitcher</w>": 10622, "Stony</w>": 10623, "innings</w>": 10624, "Marl": 10625, "ampions</w>": 10626, "Oma": 10627, "Omaha</w>": 10628, "corn": 10629, "dioc": 10630, "Virgin</w>": 10631, "kis": 10632, "Freya</w>": 10633, "Execu": 10634, "Executive</w>": 10635, "arrives</w>": 10636, "learns</w>": 10637, "labour</w>": 10638, "Count</w>": 10639, "polis</w>": 10640, "Pierre</w>": 10641, "grassland</w>": 10642, "crakes</w>": 10643, "eigh</w>": 10644, "Until</w>": 10645, "infected</w>": 10646, "chrom": 10647, "chromo": 10648, "chromosom": 10649, "chromosomal</w>": 10650, "mild</w>": 10651, "radiation</w>": 10652, "FAB</w>": 10653, "Xinj": 10654, "Xinji": 10655, "Xinjiang</w>": 10656, "Census</w>": 10657, "slavery</w>": 10658, "Rico</w>": 10659, "juris": 10660, "jurisdic": 10661, "log</w>": 10662, "mal": 10663, "soccer</w>": 10664, "Mackin": 10665, "Steven</w>": 10666, "Rugby</w>": 10667, "demographic</w>": 10668, "sins</w>": 10669, "Why</w>": 10670, "Vol": 10671, "stink": 10672, "stinkhorn</w>": 10673, "justice</w>": 10674, "governments</w>": 10675, "breed</w>": 10676, "phenomenon</w>": 10677, "oars</w>": 10678, "Gliders</w>": 10679, "Law": 10680, "mash</w>": 10681, "Copper": 10682, "Copperfield</w>": 10683, "borough</w>": 10684, "Ell": 10685, "harmolo": 10686, "compositions</w>": 10687, "Jum": 10688, "Dang": 10689, "Danger": 10690, "Dangerously</w>": 10691, "Junyi</w>": 10692, "angz": 10693, "angzhou</w>": 10694, "Arm</w>": 10695, "Jin</w>": 10696, "Ming</w>": 10697, "bot</w>": 10698, "Tang</w>": 10699, "famine</w>": 10700, "Mech</w>": 10701, "Does</w>": 10702, "Jesuits</w>": 10703, "Zel": 10704, "Zelanti</w>": 10705, "cricket</w>": 10706, "audiobook</w>": 10707, "typesetting</w>": 10708, "fonts</w>": 10709, "pun</w>": 10710, "fragrance</w>": 10711, "Suba</w>": 10712, "pawn</w>": 10713, "psychi": 10714, "psychiatric</w>": 10715, "Crac": 10716, "Crac</w>": 10717, "Baibars</w>": 10718, "Crusaders</w>": 10719, "Gibr": 10720, "Gibraltar</w>": 10721, "herds</w>": 10722, "Brest</w>": 10723, "Andr\u00e9</w>": 10724, "objectors</w>": 10725, "draftees</w>": 10726, "Cork</w>": 10727, "commandos</w>": 10728, "lefield</w>": 10729, "Vision</w>": 10730, "ita</w>": 10731, "ira</w>": 10732, "linear</w>": 10733, "maps</w>": 10734, "map</w>": 10735, "sub</w>": 10736, "relating</w>": 10737, "acquire</w>": 10738, "Point</w>": 10739, "Engine": 10740, "exemp": 10741, "reven": 10742, "revenge</w>": 10743, "ela</w>": 10744, "Tog": 10745, "Toge": 10746, "Together</w>": 10747, "desper": 10748, "onym": 10749, "onymous</w>": 10750, "Concept</w>": 10751, "error</w>": 10752, "anime</w>": 10753, "TG": 10754, "Mul": 10755, "price</w>": 10756, "exclusive</w>": 10757, "Last</w>": 10758, "152</w>": 10759, "feeling</w>": 10760, "balance</w>": 10761, "suffer</w>": 10762, "realistic</w>": 10763, "Blo": 10764, "Built</w>": 10765, "Walker</w>": 10766, "adequ": 10767, "adequate</w>": 10768, "horiz": 10769, "Mas": 10770, "let": 10771, "authorized</w>": 10772, "delivery</w>": 10773, "Perhaps</w>": 10774, "Abra": 10775, "Abraham</w>": 10776, "inaug": 10777, "manufacture</w>": 10778, "bron": 10779, "flint": 10780, "Rifle</w>": 10781, "Total</w>": 10782, "Kelly</w>": 10783, "infantry</w>": 10784, "quanti": 10785, "procured</w>": 10786, "Lt</w>": 10787, "laborers</w>": 10788, "Murphy</w>": 10789, "mary</w>": 10790, "275</w>": 10791, "indicating</w>": 10792, "pace</w>": 10793, "barracks</w>": 10794, "deploy": 10795, "deployment</w>": 10796, "forever</w>": 10797, "exclusively</w>": 10798, "quartered</w>": 10799, "girl": 10800, "donated</w>": 10801, "past": 10802, "Rapha": 10803, "autumn</w>": 10804, "Biography</w>": 10805, "swal": 10806, "Surrey</w>": 10807, "elder</w>": 10808, "prep": 10809, "prepare</w>": 10810, "remark": 10811, "supervi": 10812, "oners</w>": 10813, "pillars</w>": 10814, "atmosphere</w>": 10815, "relatives</w>": 10816, "wings</w>": 10817, "secular</w>": 10818, "manage</w>": 10819, "eath": 10820, "Edith</w>": 10821, "deteri": 10822, "tended</w>": 10823, "funeral</w>": 10824, "Warne</w>": 10825, "tent</w>": 10826, "capturing</w>": 10827, "exhibited</w>": 10828, "critically</w>": 10829, "sel</w>": 10830, "enny</w>": 10831, "spel</w>": 10832, "sacram": 10833, "Return</w>": 10834, "competed</w>": 10835, "challenges</w>": 10836, "tournaments</w>": 10837, "width</w>": 10838, "authored</w>": 10839, "Common": 10840, "Commonwealth</w>": 10841, "Scienti": 10842, "Scientific</w>": 10843, "Further": 10844, "Furthermore</w>": 10845, "fairly</w>": 10846, "intact</w>": 10847, "variable</w>": 10848, "grows</w>": 10849, "Dist": 10850, "extends</w>": 10851, "203</w>": 10852, "tends</w>": 10853, "traw": 10854, "pled</w>": 10855, "Consequently</w>": 10856, "Entry</w>": 10857, "helping</w>": 10858, "Manager</w>": 10859, "wski</w>": 10860, "expec": 10861, "teran</w>": 10862, "struggled</w>": 10863, "Mil": 10864, "roster</w>": 10865, "coaching</w>": 10866, "continuing</w>": 10867, "demanded</w>": 10868, "approaching</w>": 10869, "specu": 10870, "speculation</w>": 10871, "Dean</w>": 10872, "dying</w>": 10873, "stopping</w>": 10874, "manufacturer</w>": 10875, "huge</w>": 10876, "personally</w>": 10877, "lowest</w>": 10878, "Silver</w>": 10879, "Tournament</w>": 10880, "Ford</w>": 10881, "Winds</w>": 10882, "Gregory</w>": 10883, "mation</w>": 10884, "ify</w>": 10885, "Jesuit</w>": 10886, "73</w>": 10887, "io</w>": 10888, "implemented</w>": 10889, "vices</w>": 10890, "teor": 10891, "teorological</w>": 10892, "Jup": 10893, "Jupit": 10894, "thousand</w>": 10895, "program": 10896, "programme</w>": 10897, "manuscript</w>": 10898, "discontinued</w>": 10899, "Frances": 10900, "Francesco</w>": 10901, "bear</w>": 10902, "linking</w>": 10903, "plates</w>": 10904, "frescoes</w>": 10905, "modi": 10906, "modified</w>": 10907, "ceiling</w>": 10908, "mechanism</w>": 10909, "country": 10910, "countryside</w>": 10911, "highlights</w>": 10912, "remixes</w>": 10913, "ouldn</w>": 10914, "Can</w>": 10915, "stitution</w>": 10916, "clar": 10917, "empty</w>": 10918, "hanging</w>": 10919, "aning</w>": 10920, "terminus</w>": 10921, "streets</w>": 10922, "concurren": 10923, "traveling</w>": 10924, "System</w>": 10925, "extending</w>": 10926, "1869</w>": 10927, "Austrian</w>": 10928, "Mall": 10929, "Mallory</w>": 10930, "endor": 10931, "bol": 10932, "leaked</w>": 10933, "intense</w>": 10934, "diary</w>": 10935, "Tatt": 10936, "Tattn": 10937, "Tattnall</w>": 10938, "obstruc": 10939, "attacking</w>": 10940, "retreat</w>": 10941, "Webb</w>": 10942, "sortie</w>": 10943, "Weehaw": 10944, "Weehawken</w>": 10945, "spot": 10946, "spotted</w>": 10947, "04</w>": 10948, "disper": 10949, "dispersed</w>": 10950, "violations</w>": 10951, "Prince</w>": 10952, "assig": 10953, "assignment</w>": 10954, "auditioned</w>": 10955, "Fem": 10956, "pursued</w>": 10957, "knowing</w>": 10958, "traveled</w>": 10959, "Francis</w>": 10960, "dual</w>": 10961, "fighter</w>": 10962, "finest</w>": 10963, "Tiger</w>": 10964, "staying</w>": 10965, "myself</w>": 10966, "floods</w>": 10967, "ceremonies</w>": 10968, "accordingly</w>": 10969, "celebrities</w>": 10970, "opolitan</w>": 10971, "Tamp": 10972, "Tampa</w>": 10973, "IHL</w>": 10974, "Valuable</w>": 10975, "retiring</w>": 10976, "etta</w>": 10977, "Athle": 10978, "outstanding</w>": 10979, "minimum</w>": 10980, "Mario</w>": 10981, "overcome</w>": 10982, "Still</w>": 10983, "corridor</w>": 10984, "Former</w>": 10985, "Kennedy</w>": 10986, "Care": 10987, "Career</w>": 10988, "dreadnought</w>": 10989, "Pola</w>": 10990, "si</w>": 10991, "shaft</w>": 10992, "millimeter</w>": 10993, "Kaiser</w>": 10994, "restoration</w>": 10995, "Strait</w>": 10996, "promised</w>": 10997, "handed</w>": 10998, "allu": 10999, "recognize</w>": 11000, "Gods</w>": 11001, "flag</w>": 11002, "reminis": 11003, "reminiscent</w>": 11004, "bra</w>": 11005, "supernatural</w>": 11006, "epts</w>": 11007, "ritual</w>": 11008, "urred</w>": 11009, "universe</w>": 11010, "myth": 11011, "realm</w>": 11012, "emin": 11013, "devotion</w>": 11014, "clear": 11015, "neighboring</w>": 11016, "differed</w>": 11017, "symbolic</w>": 11018, "prominently</w>": 11019, "evolved</w>": 11020, "limits</w>": 11021, "predic": 11022, "funerary</w>": 11023, "imag": 11024, "throne</w>": 11025, "understand</w>": 11026, "approaches</w>": 11027, "happen</w>": 11028, "dwell</w>": 11029, "express</w>": 11030, "presses</w>": 11031, "centers</w>": 11032, "merge</w>": 11033, "emphasized</w>": 11034, "Every": 11035, "acknowledged</w>": 11036, "hen": 11037, "ceased</w>": 11038, "insisted</w>": 11039, "debated</w>": 11040, "arose</w>": 11041, "hybri": 11042, "colors</w>": 11043, "portray</w>": 11044, "angr": 11045, "angry</w>": 11046, "cosmic</w>": 11047, "gaining</w>": 11048, "estivals</w>": 11049, "accomplish</w>": 11050, "vidence</w>": 11051, "thanks</w>": 11052, "desired</w>": 11053, "emper": 11054, "emperors</w>": 11055, "ancest": 11056, "Mandatory</w>": 11057, "Matters</w>": 11058, "drum": 11059, "Hann": 11060, "Hanneman</w>": 11061, "Jud": 11062, "AllMusic</w>": 11063, "hearing</w>": 11064, "Silent</w>": 11065, "sat": 11066, "bath</w>": 11067, "tet</w>": 11068, "namely</w>": 11069, "Behind</w>": 11070, "constant</w>": 11071, "remun": 11072, "piston</w>": 11073, "corporate</w>": 11074, "encomp": 11075, "microlights</w>": 11076, "aerop": 11077, "helicopters</w>": 11078, "farm</w>": 11079, "strips</w>": 11080, "cous": 11081, "regulatory</w>": 11082, "favour</w>": 11083, "advertis": 11084, "advertisement</w>": 11085, "Isle</w>": 11086, "necessity</w>": 11087, "motor": 11088, "employe": 11089, "employees</w>": 11090, "professionally</w>": 11091, "lessons</w>": 11092, "reduction</w>": 11093, "thirds</w>": 11094, "displays</w>": 11095, "championships</w>": 11096, "diving</w>": 11097, "prizes</w>": 11098, "Championships</w>": 11099, "landings</w>": 11100,
[...]
